{
  "20s": 27074,
  "oxford": 4345,
  "##udes": 22087,
  "forces": 2749,
  "jacobite": 28725,
  "[unused566]": 571,
  "completes": 28123,
  "thumb": 7639,
  "narrower": 22546,
  "840": 28122,
  "cooked": 12984,
  "moral": 7191,
  "northern": 2642,
  "aaron": 7158,
  "greenland": 16128,
  "basilica": 13546,
  "mischief": 25166,
  "presidents": 11274,
  "hi": 7632,
  "ton": 10228,
  "fungi": 15289,
  "##ates": 8520,
  "\u0563": 1221,
  "de": 2139,
  "##kur": 18569,
  "tray": 11851,
  "establish": 5323,
  "\u30af": 1702,
  "drill": 12913,
  "appeared": 2596,
  "##zio": 12426,
  "##nce": 5897,
  "leary": 22986,
  "##ckman": 24080,
  "courtesy": 14571,
  "##tner": 18885,
  "\u1d2e": 1491,
  "graduation": 7665,
  "brotherhood": 12865,
  "##fire": 10273,
  "nagoya": 24425,
  "actors": 5889,
  "transport": 3665,
  "cornered": 25878,
  "##paper": 23298,
  "everett": 15160,
  "borrowing": 23733,
  "##xon": 22500,
  "dissatisfaction": 28237,
  "outward": 15436,
  "barre": 23189,
  "christi": 21359,
  "azerbaijan": 8365,
  "blind": 6397,
  "madeira": 27309,
  "##ix": 7646,
  "statues": 11342,
  "myspace": 24927,
  "jin": 9743,
  "##\u00b2": 10701,
  "dissolution": 12275,
  "cade": 18615,
  "##ow": 5004,
  "value": 3643,
  "##xx": 20348,
  "##lining": 16992,
  "torque": 15894,
  "##wich": 12414,
  "rubbed": 7503,
  "##mill": 19912,
  "embraced": 14218,
  "##\u30a1": 30218,
  "1940s": 7675,
  "surpassing": 27097,
  "##trum": 24456,
  "##d": 2094,
  "their": 2037,
  "1720": 23535,
  "magnate": 27470,
  "##\u05d1": 29789,
  "funky": 24151,
  "larsen": 20094,
  "claremont": 23716,
  "courtship": 28592,
  "##jhl": 29001,
  "raged": 28374,
  "kumar": 9600,
  "erotic": 14253,
  "##over": 7840,
  "##outs": 12166,
  "##ft": 6199,
  "sci": 16596,
  "accomplishments": 17571,
  "cracking": 15729,
  "calculations": 16268,
  "##mbit": 28878,
  "passage": 6019,
  "equivalent": 5662,
  "traumatic": 19686,
  "angola": 13491,
  "vicki": 25424,
  "involve": 9125,
  "\u1112": 1469,
  "1823": 12522,
  "\u5341": 1783,
  "allowing": 4352,
  "##iki": 17471,
  "raids": 11217,
  "hit": 2718,
  "disadvantage": 20502,
  "handy": 18801,
  "filmed": 6361,
  "kayla": 26491,
  "alongside": 4077,
  "alexa": 24969,
  "furniture": 7390,
  "blogger": 28205,
  "1718": 26995,
  "\u897f": 1947,
  "gb": 16351,
  "vinyl": 8877,
  "##sef": 20106,
  "yuri": 14331,
  "swamps": 22722,
  "##iated": 15070,
  "##ger": 4590,
  "lima": 12967,
  "fill": 6039,
  "[unused416]": 421,
  "overwhelmingly": 24783,
  "##nami": 28987,
  "violent": 6355,
  "farmer": 7500,
  "constitutes": 17367,
  "worse": 4788,
  "##ata": 6790,
  "servants": 8858,
  "residual": 21961,
  "colbert": 23928,
  "procession": 14385,
  "mcmahon": 17741,
  "les": 4649,
  "nitrogen": 14114,
  "completing": 7678,
  "##walker": 26965,
  "faction": 10233,
  "##herton": 27949,
  "##ield": 12891,
  "creaked": 28068,
  "ufc": 11966,
  "mixes": 21109,
  "pops": 16949,
  "stiffly": 27499,
  "parc": 27985,
  "cases": 3572,
  "raised": 2992,
  "piedmont": 18873,
  "inlet": 15824,
  "##ining": 24002,
  "celeste": 21113,
  "##ev": 6777,
  "cosmopolitan": 24686,
  "av": 20704,
  "faso": 22773,
  "onions": 24444,
  "##vial": 18660,
  "unusual": 5866,
  "uncertain": 9662,
  "##\u2261": 30134,
  "eras": 28500,
  "ripley": 25231,
  "rhymes": 24468,
  "[unused204]": 209,
  "rotating": 13618,
  "cpu": 17368,
  "pounds": 7038,
  "someplace": 24956,
  "presbyterian": 10133,
  "\u0917": 1317,
  "coward": 16592,
  "conservatives": 11992,
  "\u4f1a": 1763,
  "shopping": 6023,
  "[unused613]": 618,
  "##aw": 10376,
  "concludes": 14730,
  "stability": 9211,
  "cabin": 6644,
  "luckily": 15798,
  "\u0634": 1283,
  "stories": 3441,
  "##\u06be": 29844,
  "adaptations": 17241,
  "finals": 4399,
  "budget": 5166,
  "jock": 23407,
  "stairwell": 22109,
  "##sil": 27572,
  "marion": 10115,
  "##\u0dcf": 29944,
  "##rians": 23543,
  "murphy": 7104,
  "bowing": 26690,
  "expertise": 11532,
  "##\u5143": 30295,
  "prohibiting": 26325,
  "##\u203a": 30068,
  "bryn": 19904,
  "##ulously": 21227,
  "dotted": 20384,
  "1560": 29185,
  "##llin": 21202,
  "filtered": 21839,
  "altering": 22552,
  "tad": 18819,
  "##ep": 13699,
  "vickers": 18571,
  "##lights": 15733,
  "missy": 25019,
  "natalie": 10829,
  "rosalie": 29564,
  "sourced": 23184,
  "maori": 12600,
  "[unused343]": 348,
  "##xed": 19068,
  "surged": 18852,
  "##gg": 13871,
  "2005": 2384,
  "differs": 12980,
  "pegasus": 26606,
  "printed": 6267,
  "dunes": 17746,
  "nobleman": 18487,
  "##suke": 16867,
  "vii": 8890,
  "rebel": 8443,
  "vamp": 20279,
  "tension": 6980,
  "##ropriation": 26121,
  "monmouth": 20433,
  "magistrates": 23007,
  "remain": 3961,
  "area": 2181,
  "fluid": 8331,
  "rumble": 15658,
  "advance": 5083,
  "150": 5018,
  "fish": 3869,
  "appreciated": 12315,
  "regiment": 3483,
  "grotesque": 27707,
  "volcanoes": 23694,
  "coaches": 7850,
  "\u0440": 1195,
  "##\u090f": 29850,
  "hospital": 2902,
  "##amps": 25167,
  "##logic": 27179,
  "regulator": 21618,
  "290": 17222,
  "pup": 26781,
  "\u2666": 1626,
  "diva": 25992,
  "risks": 10831,
  "karnataka": 12092,
  "corrugated": 27186,
  "1762": 20827,
  "##\u05d3": 29791,
  "lattice": 17779,
  "margarita": 24570,
  "1665": 27676,
  "\u20a4": 1572,
  "##just": 29427,
  "leash": 26834,
  "taxpayers": 26457,
  "nervous": 6091,
  "charleston": 10907,
  "[unused756]": 761,
  "##ndo": 15482,
  "clifford": 13894,
  "1801": 12410,
  "1714": 25241,
  "mccarthy": 12584,
  "##iol": 20282,
  "deeds": 15616,
  "##ours": 22957,
  "elder": 6422,
  "continuous": 7142,
  "tops": 13284,
  "\u571f": 1801,
  "fringe": 13548,
  "arose": 10375,
  "popularity": 6217,
  "##\u209a": 30097,
  "muted": 22124,
  "endeavors": 28809,
  "stresses": 23253,
  "ranks": 6938,
  "confirm": 12210,
  "##fast": 24333,
  "##ulent": 27581,
  "1653": 29309,
  "sep": 19802,
  "quote": 14686,
  "satire": 18312,
  "computing": 9798,
  "typically": 4050,
  "whimper": 28544,
  "##\u2f65": 30160,
  "##etto": 20082,
  "valuation": 26004,
  "exported": 15612,
  "1894": 6539,
  "basics": 24078,
  "maclean": 22528,
  "sponsored": 6485,
  "saetan": 23515,
  "\u0e15": 1411,
  "capitalist": 19640,
  "wendell": 24526,
  "##guchi": 16918,
  "geologist": 21334,
  "blues": 5132,
  "mistaken": 13534,
  "vintage": 13528,
  "[unused333]": 338,
  "contaminated": 19450,
  "goal": 3125,
  "##rred": 20529,
  "sprayed": 25401,
  "harvested": 22629,
  "assembled": 9240,
  "12": 2260,
  "induced": 10572,
  "faculties": 18658,
  "##sr": 21338,
  "##erative": 25284,
  "prevalent": 15157,
  "watches": 12197,
  "league": 2223,
  "dvd": 4966,
  "honeymoon": 19227,
  "chess": 7433,
  "unicorn": 21830,
  "1659": 28288,
  "burnt": 11060,
  "postdoctoral": 29272,
  "kassel": 27884,
  "lighting": 7497,
  "##hes": 15689,
  "toast": 15174,
  "[unused672]": 677,
  "##oto": 11439,
  "rainfall": 10101,
  "##case": 18382,
  "##inho": 29344,
  "strengthened": 13949,
  "##rac": 22648,
  "ek": 23969,
  "boar": 24187,
  "draper": 23641,
  "##sma": 26212,
  "slovakia": 10991,
  "##vert": 16874,
  "adapting": 25357,
  "famously": 18172,
  "##\u9234": 30491,
  "##\u4f50": 30290,
  "##dent": 16454,
  "evan": 9340,
  "pasture": 20787,
  "bulldogs": 15120,
  "sophisticated": 12138,
  "mariano": 22695,
  "mixtape": 18713,
  "holding": 3173,
  "accounts": 6115,
  "confident": 9657,
  "##cal": 9289,
  "##\u535a": 30312,
  "avoid": 4468,
  "causes": 5320,
  "eliminate": 11027,
  "property": 3200,
  "cloudy": 24706,
  "valves": 17355,
  "uta": 28981,
  "156": 16734,
  "masks": 15806,
  "pediatric": 23614,
  "trenton": 17148,
  "evidenced": 21328,
  "##lynn": 27610,
  "pillow": 10005,
  "notes": 3964,
  "philharmonic": 12355,
  "vortex": 23463,
  "geological": 9843,
  "85": 5594,
  "##pts": 22798,
  "contributing": 8020,
  "lancashire": 9638,
  "completion": 6503,
  "odin": 26195,
  "tha": 22794,
  "top": 2327,
  "bwv": 23860,
  "bottom": 3953,
  "bronze": 4421,
  "posted": 6866,
  "frequencies": 13139,
  "##reate": 29313,
  "exiting": 22371,
  "halo": 17201,
  "dreamed": 13830,
  "hampered": 22532,
  "[unused33]": 34,
  "shifts": 12363,
  "ions": 15956,
  "##acion": 21736,
  "##iface": 29164,
  "exam": 11360,
  "outstanding": 5151,
  "##\u05d0": 29788,
  "swelled": 21851,
  "##num": 19172,
  "characterized": 7356,
  "boarding": 9405,
  "##uding": 24539,
  "leopard": 16240,
  "husky": 18758,
  "1782": 16890,
  "glimpse": 12185,
  "genevieve": 20245,
  "crocodile": 21843,
  "[unused313]": 318,
  "##rations": 28893,
  "##my": 8029,
  "anyway": 4312,
  "mari": 16266,
  "insect": 14211,
  "##\u0f60": 29969,
  "throne": 6106,
  "theresa": 14781,
  "grassroots": 23299,
  "swami": 20087,
  "lev": 23310,
  "beijing": 7211,
  "sonora": 26647,
  "\u03c7": 1177,
  "origin": 4761,
  "sweeping": 12720,
  "cares": 14977,
  "amusement": 9778,
  "columbian": 25882,
  "sacks": 14918,
  "painfully": 16267,
  "##\u76f8": 30445,
  "trough": 23389,
  "sh": 14021,
  "makes": 3084,
  "##mac": 22911,
  "scout": 7464,
  "severe": 5729,
  "##dt": 11927,
  "stormed": 16201,
  "##more": 5974,
  "heraldic": 28867,
  "##quisite": 24871,
  "thrill": 16959,
  "##\u0563": 29768,
  "##patient": 24343,
  "informally": 21858,
  "stove": 16247,
  "\u05e4": 1261,
  "underworld": 13607,
  "implied": 13339,
  "ajax": 18176,
  "fooled": 25857,
  "rq": 28134,
  "marker": 12115,
  "lakshmi": 21352,
  "\u5e1d": 1838,
  "periphery": 23275,
  "tightened": 8371,
  "amber": 8994,
  "bravo": 17562,
  "##lten": 29005,
  "bypass": 11826,
  "ipa": 24531,
  "hk": 22563,
  "##glia": 20011,
  "ideals": 15084,
  "canvas": 10683,
  "sparkle": 26831,
  "require": 5478,
  "fantasia": 29203,
  "fellows": 13572,
  "transparency": 16987,
  "scholarships": 15691,
  "weasel": 29268,
  "uniform": 6375,
  "neal": 11030,
  "parapet": 27372,
  "pseudonym": 13881,
  "##ggy": 22772,
  "myers": 13854,
  "jewellery": 21545,
  "reinforced": 11013,
  "cicero": 23080,
  "##code": 16044,
  "uniformed": 25189,
  "fingered": 28842,
  "alcohol": 6544,
  "##\u091a": 29854,
  "##enstein": 21819,
  "chunk": 20000,
  "repeating": 15192,
  "sums": 20571,
  "vans": 21994,
  "##oney": 17791,
  "pad": 11687,
  "sai": 18952,
  "tabloid": 24173,
  "shear": 18330,
  "shield": 6099,
  "##wad": 26016,
  "##id": 3593,
  "phillip": 10852,
  "zhao": 15634,
  "##\u0bc1": 29933,
  "ryu": 19367,
  "sobs": 21503,
  "stopping": 7458,
  "scuba": 28651,
  "ominous": 23504,
  "muttered": 6250,
  "quartz": 20971,
  "338": 27908,
  "partnership": 5386,
  "fist": 7345,
  "bin": 8026,
  "1756": 22370,
  "m2": 25525,
  "\u00a3100": 27708,
  "avenge": 24896,
  "modern": 2715,
  "taekwondo": 28529,
  "comfortable": 6625,
  "louisville": 11577,
  "[unused47]": 48,
  "stupidity": 28072,
  "june": 2238,
  "air": 2250,
  "muscles": 6650,
  "boxes": 8378,
  "protecting": 8650,
  "24th": 13386,
  "covenant": 16077,
  "##planes": 26634,
  "##ticus": 29587,
  "netball": 25034,
  "establishes": 21009,
  "\u3001": 1635,
  "terre": 25170,
  "tempting": 23421,
  "nueva": 24536,
  "exact": 6635,
  "coordinating": 19795,
  "[unused929]": 934,
  "ashore": 16145,
  "phantom": 11588,
  "alexei": 21219,
  "bankrupt": 17482,
  "linnaeus": 21610,
  "monterey": 19860,
  "posing": 20540,
  "memorial": 3986,
  "##ographer": 26145,
  "penguin": 13987,
  "splits": 19584,
  "experimental": 6388,
  "##geny": 17487,
  "steering": 9602,
  "rose": 3123,
  "isabel": 11648,
  "[unused684]": 689,
  "##tens": 25808,
  "carriages": 17744,
  "[unused687]": 692,
  "tests": 5852,
  "##dre": 16200,
  "inner": 5110,
  "##hon": 8747,
  "venetian": 15510,
  "wasp": 19411,
  "indices": 29299,
  "210": 12875,
  "##\u7af9": 30459,
  "##tok": 18715,
  "\u02e4": 1154,
  "eastman": 24252,
  "sparkled": 28092,
  "##fles": 28331,
  "##hr": 8093,
  "##enting": 26951,
  "textbook": 16432,
  "##\u11b7": 30023,
  "other": 2060,
  "##castle": 23662,
  "##ism": 2964,
  "winding": 12788,
  "\u05d2": 1243,
  "boycott": 17757,
  "goat": 13555,
  "jeopardy": 26604,
  "principle": 6958,
  "##nery": 27415,
  "cousins": 12334,
  "[unused749]": 754,
  "flush": 13862,
  "##age": 4270,
  "paralysis": 26287,
  "civilization": 10585,
  "##{": 29640,
  "lucas": 6326,
  "arya": 26140,
  "chatting": 22331,
  "##\u5357": 30311,
  "handler": 28213,
  "belarusian": 15626,
  "greeted": 11188,
  "##pressing": 24128,
  "dive": 11529,
  "[unused182]": 187,
  "gall": 26033,
  "scans": 27404,
  "guinea": 7102,
  "baha": 13253,
  "nose": 4451,
  "##ssa": 11488,
  "1640": 21533,
  "rupert": 14641,
  "##cision": 28472,
  "address": 4769,
  "succeed": 9510,
  "tools": 5906,
  "slowed": 9784,
  "ieee": 15368,
  "##rrow": 28597,
  "song": 2299,
  "tel": 10093,
  "bank": 2924,
  "##zam": 20722,
  "tonight": 3892,
  "monumental": 15447,
  "poking": 21603,
  "##lster": 29576,
  "english": 2394,
  "lucien": 11732,
  "telenovela": 25754,
  "copenhagen": 9664,
  "colombian": 13598,
  "francs": 24313,
  "[unused607]": 612,
  "descendants": 8481,
  "hussein": 16543,
  "[unused277]": 282,
  "strikeouts": 20813,
  "nikki": 14470,
  "outright": 13848,
  "consultants": 22283,
  "gathered": 5935,
  "acronym": 20137,
  "flashback": 21907,
  "unemployment": 12163,
  "boys": 3337,
  "cambridgeshire": 24197,
  "##music": 27275,
  "chapel": 4970,
  "repeated": 5567,
  "outcomes": 13105,
  "acquisition": 7654,
  "secured": 7119,
  "##bed": 8270,
  "marching": 10998,
  "numbered": 8597,
  "abd": 19935,
  "retain": 9279,
  "extra": 4469,
  "medalist": 12968,
  "paying": 7079,
  "##oko": 16366,
  "##anda": 13832,
  "##ocation": 23909,
  "iata": 9833,
  "savior": 24859,
  "##ywood": 26985,
  "vectors": 19019,
  "##\u5065": 30294,
  "rotation": 9963,
  "eireann": 29157,
  "noted": 3264,
  "\u77f3": 1922,
  "kamal": 21911,
  "##ach": 6776,
  "plaque": 11952,
  "juarez": 25398,
  "orlando": 10108,
  "displaced": 12936,
  "cohen": 9946,
  "verses": 11086,
  "mutations": 14494,
  "##lies": 11983,
  "\u043c": 1191,
  "autonomous": 8392,
  "appears": 3544,
  "[unused107]": 112,
  "##kia": 21128,
  "\u044b": 1206,
  "flowering": 10902,
  "lashes": 16008,
  "[unused252]": 257,
  "\u3081": 1680,
  "texts": 6981,
  "redskins": 17461,
  "coup": 8648,
  "fading": 14059,
  "proposition": 14848,
  "disperse": 28736,
  "bees": 13734,
  "grover": 25242,
  "scrolls": 23074,
  "panorama": 23652,
  "fused": 19660,
  "favourable": 18731,
  "##ring": 4892,
  "##\u062f": 15394,
  "##raction": 25533,
  "thanking": 28638,
  "##eva": 13331,
  "##p": 2361,
  "earlier": 3041,
  "##gins": 16529,
  "tale": 6925,
  "parasites": 23996,
  "extravagant": 27856,
  "successes": 14152,
  "##xie": 16898,
  "glass": 3221,
  "boulders": 22177,
  "##\u52dd": 30306,
  "hardin": 27522,
  "##tti": 6916,
  "adversary": 27248,
  "##opped": 27288,
  "mike": 3505,
  "disabled": 9776,
  "robertson": 9923,
  "mis": 28616,
  "ram": 8223,
  "drying": 17462,
  "news": 2739,
  "oliver": 6291,
  "pen": 7279,
  "straighten": 28568,
  "spin": 6714,
  "jericho": 17309,
  "##ky": 4801,
  "considering": 6195,
  "growling": 22413,
  "biological": 6897,
  "downward": 14047,
  "routine": 9410,
  "sloan": 19024,
  "lori": 18669,
  "exquisite": 19401,
  "shane": 8683,
  "bolt": 10053,
  "adult": 4639,
  "undertook": 12543,
  "##tman": 22942,
  "bisexual": 22437,
  "##powered": 27267,
  "renew": 20687,
  "powers": 4204,
  "marginal": 14785,
  "##ckey": 29183,
  "powerful": 3928,
  "##arium": 17285,
  "kinetic": 20504,
  "intensely": 20531,
  "flexibility": 16991,
  "vehicle": 4316,
  "##ink": 19839,
  "requests": 11186,
  "showcased": 22443,
  "belize": 18867,
  "##asia": 15396,
  "277": 25578,
  "##ista": 11921,
  "susquehanna": 26361,
  "ramps": 24943,
  "hospitality": 15961,
  "horizontally": 23190,
  "##duced": 28901,
  "pont": 21179,
  "[unused919]": 924,
  "empathy": 26452,
  "gary": 5639,
  "##ified": 7810,
  "adolph": 28564,
  "selection": 4989,
  "##@": 29633,
  "[unused593]": 598,
  "slovenian": 16583,
  "igor": 14661,
  "##bri": 23736,
  "books": 2808,
  "##io": 3695,
  "##ruff": 26919,
  "reveal": 7487,
  "journals": 9263,
  "offences": 18421,
  "cy": 22330,
  "249": 23628,
  "##aha": 23278,
  "[unused502]": 507,
  "possessing": 18840,
  "topology": 19587,
  "anterior": 15099,
  "##omy": 16940,
  "goblin": 22639,
  "##vs": 15088,
  "battles": 7465,
  "labor": 4450,
  "meteor": 23879,
  "paved": 12308,
  "residues": 22644,
  "underside": 17313,
  "[unused834]": 839,
  "\u209b": 1570,
  "unsuccessfully": 11551,
  "coyotes": 26880,
  "osborne": 16732,
  "peterborough": 17587,
  "darwin": 11534,
  "1995": 2786,
  "\u306f": 1672,
  "cong": 26478,
  "discussion": 6594,
  "gonzaga": 26840,
  "mack": 11349,
  "cdc": 26629,
  "lucivar": 21401,
  "fluent": 19376,
  "##ote": 12184,
  "minerva": 27383,
  "\u09aa": 1367,
  "##ough": 10593,
  "contrasting": 22133,
  "##pm": 9737,
  "ni": 9152,
  "blazing": 17162,
  "bengali": 11267,
  "haunted": 11171,
  "budgets": 26178,
  "[unused19]": 20,
  "turin": 13667,
  "##band": 12733,
  "##\u6a4b": 30411,
  "perished": 23181,
  "watkins": 17055,
  "pre": 3653,
  "murdoch": 19954,
  "denny": 14465,
  "amalgamation": 21968,
  "grammatical": 24402,
  "carlos": 5828,
  "dot": 11089,
  "##\u05e9": 29812,
  "permission": 6656,
  "april": 2258,
  "manifold": 19726,
  "garment": 19002,
  "cult": 8754,
  "effectively": 6464,
  "##iche": 17322,
  "teens": 13496,
  "medley": 13863,
  "##anto": 21634,
  "withdrawing": 21779,
  "surprises": 20096,
  "##aint": 22325,
  "ks": 29535,
  "elton": 19127,
  "siena": 23754,
  "aftermath": 10530,
  "lessons": 8220,
  "conor": 20545,
  "flaps": 26570,
  "berry": 10498,
  "##oz": 18153,
  "spirituality": 21244,
  "\u8857": 1946,
  "allergic": 27395,
  "rehearsal": 17887,
  "[unused725]": 730,
  "given": 2445,
  "mab": 26661,
  "denmark": 5842,
  "enclave": 25867,
  "##wo": 12155,
  "inhibitor": 24054,
  "##\u3093": 30217,
  "##nable": 22966,
  "railroads": 16197,
  "sponge": 25742,
  "lay": 3913,
  "slowing": 18068,
  "##bus": 8286,
  "harrington": 19760,
  "##rger": 25858,
  "limited": 3132,
  "flex": 23951,
  "##wide": 22517,
  "screenplay": 9000,
  "##tica": 22723,
  "short": 2460,
  "criticism": 6256,
  "\u2074": 1538,
  "cowan": 25752,
  "##walk": 17122,
  "hilda": 21589,
  "##dened": 24589,
  "outer": 6058,
  "##lent": 16136,
  "subtropical": 11935,
  "merit": 7857,
  "newfound": 27608,
  "clarkson": 18648,
  "written": 2517,
  "ball": 3608,
  "outdated": 25963,
  "dome": 8514,
  "respecting": 27818,
  "##gent": 11461,
  "influenced": 5105,
  "agenda": 11376,
  "kin": 12631,
  "capability": 10673,
  "conference": 3034,
  "##\u091c": 29855,
  "spirited": 24462,
  "stairway": 21952,
  "cn": 27166,
  "implicated": 20467,
  "lunatic": 26594,
  "##gies": 17252,
  "indictment": 24265,
  "matter": 3043,
  "bowls": 15220,
  "supervisors": 22565,
  "phelps": 20475,
  "blackwell": 18776,
  "along": 2247,
  "locomotive": 8098,
  "funds": 5029,
  "congresses": 24460,
  "mons": 29408,
  "reduces": 13416,
  "gottingen": 23607,
  "aquitaine": 24973,
  "majesty": 9995,
  "[unused988]": 993,
  "##pan": 9739,
  "##gb": 18259,
  "sheridan": 13243,
  "genocide": 14052,
  "booklet": 19271,
  "hinduism": 19632,
  "1667": 27643,
  "ronnie": 11688,
  "gestured": 11574,
  "glaciers": 21193,
  "ransom": 16540,
  "atoll": 22292,
  "precious": 9062,
  "areas": 2752,
  "disadvantaged": 27322,
  "1620": 24259,
  "clapping": 27104,
  "##tarian": 28897,
  "\u045b": 1217,
  "buckle": 22853,
  "founding": 4889,
  "decreased": 10548,
  "##\u05e4": 29807,
  "##el": 2884,
  "melody": 8531,
  "directional": 20396,
  "palms": 9486,
  "guildford": 26353,
  "##\u092a": 29864,
  "##rzburg": 29136,
  "mingled": 25959,
  "revolver": 17863,
  "propellers": 23405,
  "sable": 23492,
  "dell": 12418,
  "magazines": 7298,
  "therapy": 7242,
  "mechanisms": 10595,
  "\u0f53": 1429,
  "departure": 6712,
  "##ven": 8159,
  "wynn": 25328,
  "concussion": 23159,
  "cecilia": 18459,
  "##itia": 29050,
  "sailed": 7434,
  "castes": 26254,
  "lurking": 24261,
  "claim": 4366,
  "totally": 6135,
  "discarded": 15105,
  "connor": 6720,
  "boyle": 16694,
  "standard": 3115,
  "innovation": 8144,
  "vampires": 6144,
  "trust": 3404,
  "personalities": 12857,
  "##\u11ab": 30021,
  "eligible": 7792,
  "howie": 28211,
  "oz": 11472,
  "als": 25520,
  "liable": 20090,
  "dividing": 16023,
  "##cans": 26642,
  "din": 11586,
  "acres": 4631,
  "##\u0bae": 29925,
  "quarry": 12907,
  "##ef": 12879,
  "remove": 6366,
  "##quist": 18331,
  "pantheon": 24152,
  "okay": 3100,
  "pipe": 8667,
  "octagonal": 22340,
  "##aceous": 25560,
  "##vao": 24682,
  "ribbons": 22688,
  "possibility": 6061,
  "favour": 7927,
  "##lative": 26255,
  "block": 3796,
  "v6": 25275,
  "hampshire": 7035,
  "improvement": 7620,
  ",": 1010,
  "continually": 14678,
  "assumed": 5071,
  "certificate": 8196,
  "flashed": 8373,
  "##k": 2243,
  "capitals": 15433,
  "brittle": 24650,
  "beach": 3509,
  "horsemen": 25431,
  "phase": 4403,
  "yin": 18208,
  "revealing": 8669,
  "prescription": 20422,
  "troops": 3629,
  "##\u307b": 30202,
  "gregorian": 25847,
  "bengals": 23227,
  "##ff": 4246,
  "similarity": 14402,
  "citizen": 6926,
  "##kos": 15710,
  "jamaica": 9156,
  "telegram": 23921,
  "relative": 5816,
  "cream": 6949,
  "cautious": 17145,
  "sergeant": 6722,
  "knife": 5442,
  "actual": 5025,
  "tavern": 13090,
  "warp": 24136,
  "reminder": 14764,
  "click": 11562,
  "pads": 19586,
  "judge": 3648,
  "##rama": 14672,
  "routes": 5847,
  "##nets": 22781,
  "rodgers": 15652,
  "delaware": 8452,
  "chartered": 12443,
  "amino": 13096,
  "cantata": 23629,
  "annapolis": 24889,
  "sentencing": 23280,
  "agatha": 23863,
  "messed": 18358,
  "##ulo": 18845,
  "americana": 25988,
  "[unused538]": 543,
  "resist": 9507,
  "presence": 3739,
  "mercury": 8714,
  "artefacts": 25762,
  "essay": 9491,
  "[unused801]": 806,
  "\u099f": 1359,
  "neurological": 23130,
  "344": 29386,
  "314": 26257,
  "northamptonshire": 21367,
  "##alle": 24164,
  "immediately": 3202,
  "##eter": 15141,
  "maurice": 7994,
  "##dan": 7847,
  "##naut": 24619,
  "perspective": 7339,
  "costume": 9427,
  "##uw": 25974,
  "power": 2373,
  "ghostly": 24407,
  "railway": 2737,
  "float": 14257,
  "searched": 9022,
  "photo": 6302,
  "modification": 14080,
  "infected": 10372,
  "progresses": 22901,
  "lebanese": 12592,
  "largely": 4321,
  "96": 5986,
  "wooden": 4799,
  "surveyed": 12876,
  "thorpe": 20249,
  "justine": 26377,
  "tracked": 12808,
  "goldberg": 18522,
  "rip": 10973,
  "[unused295]": 300,
  "constabulary": 23791,
  "cents": 16653,
  "protesting": 21248,
  "gasp": 12008,
  "jewel": 13713,
  "residential": 5647,
  "\u5948": 1814,
  "trinity": 7124,
  "learners": 26262,
  "lifeboat": 23450,
  "\u5317": 1781,
  "providence": 11293,
  "heel": 12073,
  "editing": 9260,
  "vile": 25047,
  "quentin": 15969,
  "perched": 17335,
  "##bad": 9024,
  "\u30a7": 1697,
  "##lands": 8653,
  "##kov": 7724,
  "vlad": 19163,
  "marta": 18950,
  "cinematography": 16434,
  "fond": 13545,
  "miracles": 17861,
  "im": 10047,
  "photographs": 7008,
  "##\u026b": 29686,
  "dia": 22939,
  "choices": 9804,
  "daisy": 10409,
  "frequent": 6976,
  "##nesian": 20281,
  "##ctors": 24817,
  "net": 5658,
  "approval": 6226,
  "168": 16923,
  "##iss": 14643,
  "admits": 14456,
  "brent": 12895,
  "grandfather": 5615,
  "ain": 7110,
  "face": 2227,
  "mayor": 3664,
  "##rrick": 24999,
  "harmed": 25596,
  "##river": 24352,
  "catching": 9105,
  "investment": 5211,
  "stella": 11894,
  "snake": 7488,
  "hamas": 22129,
  "invalid": 19528,
  "survives": 13655,
  "thompson": 5953,
  "und": 6151,
  "1773": 19916,
  "[unused190]": 195,
  "mtv": 8692,
  "##enia": 19825,
  "horrors": 22812,
  "invariant": 23915,
  "niche": 18111,
  "##85": 27531,
  "emblem": 16199,
  "##ool": 13669,
  "filtering": 22910,
  "##mes": 7834,
  "assurance": 16375,
  "rudy": 18254,
  "behave": 16582,
  "##pl": 24759,
  "[unused885]": 890,
  "talking": 3331,
  "512": 24406,
  "##ress": 8303,
  "tyre": 21904,
  "##used": 13901,
  "calm": 5475,
  "innsbruck": 28914,
  "flourished": 17893,
  "withstand": 19319,
  "goodwin": 19928,
  "##put": 18780,
  "adopting": 16151,
  "sunni": 18883,
  "##\u00f0": 29668,
  "brick": 5318,
  "warsaw": 8199,
  "##ain": 8113,
  "##ango": 23422,
  "##tituted": 29139,
  "vince": 12159,
  "##\u4eac": 30281,
  "##turing": 16037,
  "beings": 9552,
  "groningen": 29070,
  "gerald": 9659,
  "featherweight": 27145,
  "##arians": 28369,
  "##rith": 24292,
  "butte": 25024,
  "acceptable": 11701,
  "how": 2129,
  "##llie": 23697,
  "##ost": 14122,
  "invite": 13260,
  "##cor": 27108,
  "skyscraper": 24581,
  "##mma": 14760,
  "##mmon": 24521,
  "immortality": 20107,
  "emory": 25853,
  "cock": 10338,
  "novel": 3117,
  "93": 6109,
  "ia": 24264,
  "mantra": 25951,
  "##fer": 7512,
  "##ar": 2906,
  "certain": 3056,
  "calves": 28023,
  "baxter": 14664,
  "fairness": 26935,
  "remixed": 17574,
  "frankie": 12784,
  "\u10e3": 1454,
  "\u2665": 1625,
  "sr": 5034,
  "rise": 4125,
  "aleppo": 22973,
  "mass": 3742,
  "flank": 12205,
  "somehow": 5064,
  "8th": 5893,
  "\u9fb8": 1983,
  "walnut": 18489,
  "##market": 20285,
  "##iable": 19210,
  "##\u1107": 29996,
  "sexually": 12581,
  "199": 20713,
  "crop": 10416,
  "postwar": 20013,
  "##eded": 19082,
  "shift": 5670,
  "pow": 23776,
  "##\u00be": 29665,
  "meade": 26501,
  "##\u02bc": 29712,
  "seth": 6662,
  "mic": 23025,
  "guts": 18453,
  "swarm": 21708,
  "razor": 15082,
  "submarine": 6982,
  "spoiled": 19582,
  "nashville": 8423,
  "##rce": 19170,
  "maddox": 22730,
  "rash": 23438,
  "immune": 11311,
  "1770": 17711,
  "recommends": 26021,
  "pulled": 2766,
  "\u06d2": 1310,
  "fungal": 28079,
  "nationalist": 8986,
  "composite": 12490,
  "pleasing": 24820,
  "variability": 28436,
  "ensign": 19890,
  "peruvian": 15432,
  "henry": 2888,
  "##itic": 18291,
  "novak": 19580,
  "amendment": 7450,
  "[unused449]": 454,
  "##eurs": 26744,
  "patted": 11930,
  "[unused978]": 983,
  "meet": 3113,
  "##eye": 17683,
  "##\u0443": 29748,
  "##usly": 27191,
  "beamed": 22587,
  "##ist": 2923,
  "\u056f": 1227,
  "##illo": 10486,
  "leans": 12671,
  "##vish": 24968,
  "##rdi": 17080,
  "1940": 3878,
  "staged": 9813,
  "needed": 2734,
  "clare": 11152,
  "differed": 19541,
  "assembly": 3320,
  "frenzy": 21517,
  "shouldered": 29383,
  "confesses": 22826,
  "buy": 4965,
  "ljubljana": 21588,
  "##marine": 21966,
  "connection": 4434,
  "##akes": 20060,
  "midi": 22265,
  "##\u09aa": 29903,
  "esteem": 19593,
  "forming": 5716,
  "minerals": 13246,
  "movie": 3185,
  "\u306e": 1671,
  "voted": 5444,
  "##arty": 23871,
  "survivor": 12084,
  "jc": 29175,
  "stage": 2754,
  "antwerp": 14003,
  "usage": 8192,
  "cinder": 29399,
  "operational": 6515,
  "rollins": 23502,
  "reservoirs": 22535,
  "union": 2586,
  "cows": 17188,
  "meanings": 15383,
  "##liche": 27412,
  "##\u2088": 30084,
  "gossip": 13761,
  "[unused689]": 694,
  "kade": 26159,
  "##rooms": 29020,
  "speeds": 10898,
  "cartridges": 22998,
  "vacated": 15348,
  "##\u062d": 29820,
  "##stein": 8602,
  "[unused604]": 609,
  "[unused914]": 919,
  "nomenclature": 23718,
  "##lais": 28704,
  "disguised": 17330,
  "##cl": 20464,
  "familiarity": 24666,
  "##therapy": 20900,
  "[unused67]": 68,
  "yielded": 17544,
  "biennale": 21140,
  "##clops": 28659,
  "breakout": 25129,
  "139": 16621,
  "spray": 12509,
  "chuckle": 15375,
  "##\u2202": 30120,
  "surveys": 12265,
  "louvre": 25110,
  "##hom": 23393,
  "shrewsbury": 18174,
  "spine": 8560,
  "##lke": 28143,
  "mode": 5549,
  "view": 3193,
  "upheld": 16813,
  "progressively": 20519,
  "channels": 6833,
  "fallen": 5357,
  "quarterfinal": 29380,
  "recreational": 10517,
  "audition": 14597,
  "##ee": 4402,
  "stronger": 6428,
  "##wara": 11872,
  "sarcasm": 20954,
  "featuring": 3794,
  "monaco": 14497,
  "lids": 26122,
  "shi": 11895,
  "businessman": 6883,
  "sitting": 3564,
  "jointly": 10776,
  "gunshot": 22077,
  "excerpts": 24962,
  "donnell": 18016,
  "fearing": 14892,
  "##osphere": 25444,
  "war": 2162,
  "dripped": 22526,
  "uganda": 10031,
  "1651": 29077,
  "prisoners": 5895,
  "angelina": 23847,
  "politics": 4331,
  "experts": 8519,
  "painters": 12499,
  "allows": 4473,
  "finest": 10418,
  "stuart": 6990,
  "##tford": 26341,
  "humphrey": 15462,
  "twenty20": 22240,
  "dec": 11703,
  "wimbledon": 13411,
  "[unused798]": 803,
  "breached": 25769,
  "labrador": 18604,
  "won": 2180,
  "folder": 19622,
  "medication": 14667,
  "weakly": 17541,
  "counted": 8897,
  "croats": 26222,
  "mixer": 23228,
  "loan": 5414,
  "mentally": 10597,
  "mistake": 6707,
  "##hara": 11077,
  "##chee": 25923,
  "##asurable": 28329,
  "carson": 9806,
  "##xes": 20156,
  "parasite": 21198,
  "\u65b0": 1862,
  "tal": 21368,
  "publish": 10172,
  "sea": 2712,
  "backing": 5150,
  "progressed": 12506,
  "##\u305b": 30185,
  "##zon": 11597,
  "grazing": 15400,
  "ant": 14405,
  "joanna": 15730,
  "1992": 2826,
  "respondents": 25094,
  "tingling": 23690,
  "rb": 21144,
  "[unused43]": 44,
  "hoisted": 27269,
  "[unused470]": 475,
  "century": 2301,
  "coleman": 11608,
  "trio": 7146,
  "donations": 11440,
  "##jian": 27685,
  "manually": 21118,
  "filthy": 18294,
  "hiv": 9820,
  "family": 2155,
  "[unused311]": 316,
  "\u09b6": 1374,
  "##uted": 12926,
  "##fying": 14116,
  "sequence": 5537,
  "balkans": 19733,
  "scranton": 26123,
  "unmarried": 17204,
  "##llins": 26655,
  "extension": 5331,
  "##hian": 14204,
  "cultures": 8578,
  "##hila": 26415,
  "johann": 8968,
  "##sky": 5874,
  "misses": 22182,
  "prevents": 16263,
  "37th": 23027,
  "[unused241]": 246,
  "pencil": 14745,
  "##link": 13767,
  "utc": 11396,
  "trace": 7637,
  "ethnic": 5636,
  "\uff0d": 1990,
  "linen": 17517,
  "##\u2265": 30136,
  "##\u5cf6": 30359,
  "ear": 4540,
  "rains": 15811,
  "sailors": 11279,
  "##\u03bb": 29727,
  "cochrane": 22329,
  "evolutionary": 12761,
  "third": 2353,
  "##miento": 28883,
  "iteration": 27758,
  "##arus": 29133,
  "vanish": 25887,
  "sql": 29296,
  "##dina": 18979,
  "meaningless": 25120,
  "yorker": 19095,
  "mono": 18847,
  "metropolitan": 4956,
  "presented": 3591,
  "##lastic": 28723,
  "##bert": 8296,
  "desktop": 15363,
  "##ske": 17140,
  "##phone": 9864,
  "openly": 10132,
  "mechanic": 15893,
  "installations": 14111,
  "replied": 3880,
  "[unused173]": 178,
  "##thesis": 25078,
  "conditioning": 14372,
  "baden": 12189,
  "wooded": 17172,
  "\u208d": 1558,
  "##\u0127": 29672,
  "fans": 4599,
  "responses": 10960,
  "ballads": 18456,
  "1923": 4927,
  "perception": 10617,
  "verb": 12034,
  "trailing": 12542,
  "##eh": 11106,
  "romero": 18290,
  "stint": 12116,
  "harris": 5671,
  "type": 2828,
  "\u0254": 1112,
  "referendum": 9782,
  "oilers": 19778,
  "\u2082": 1549,
  "##\u0268": 29684,
  "\u0584": 1239,
  "reptiles": 20978,
  "yearly": 12142,
  "archaeologists": 19254,
  "[unused297]": 302,
  "tunis": 25317,
  "kilda": 22633,
  "poked": 16826,
  "##lete": 25890,
  "ritchie": 20404,
  "jordanian": 26276,
  "detachment": 11009,
  "tingle": 25792,
  "obvious": 5793,
  "##pps": 28281,
  "##sume": 23545,
  "reforming": 29455,
  "influence": 3747,
  "loves": 7459,
  "lazy": 13971,
  "##\u0274": 29690,
  "##\u5ba3": 30349,
  "server": 8241,
  "stevenson": 13636,
  "oils": 20631,
  "emerges": 19391,
  "reject": 15454,
  "forts": 15421,
  "roasted": 28115,
  "burger": 15890,
  "tehran": 13503,
  "rashid": 22080,
  "understanding": 4824,
  "opposing": 10078,
  "occurrences": 27247,
  "stealing": 11065,
  "[unused350]": 355,
  "thickness": 14983,
  "illumination": 21203,
  "organizers": 18829,
  "smackdown": 22120,
  "thursday": 9432,
  "soon": 2574,
  "thereof": 21739,
  "british": 2329,
  "passion": 6896,
  "##rchy": 29389,
  "afternoon": 5027,
  "cosmetic": 25536,
  "inflicted": 17303,
  "maybe": 2672,
  "spreads": 20861,
  "midwest": 13608,
  "hut": 12570,
  "[unused717]": 722,
  "herbs": 17561,
  "marshal": 8610,
  "##af": 10354,
  "hawkins": 13835,
  "##itarian": 25691,
  "##frame": 15643,
  "329": 29567,
  "\u516b": 1771,
  "##itation": 18557,
  "gymnast": 25055,
  "farther": 8736,
  "##oration": 21223,
  "ecole": 12431,
  "candle": 13541,
  "##iste": 27870,
  "##urance": 25863,
  "fingerprints": 27556,
  "gentleman": 10170,
  "swans": 26699,
  "##ggles": 24989,
  "submission": 12339,
  "yd": 21076,
  "##dote": 23681,
  "head": 2132,
  "notions": 21951,
  "##wyl": 27740,
  "penguins": 18134,
  "##iro": 9711,
  "required": 3223,
  "##lana": 16695,
  "aix": 28443,
  "emirates": 14041,
  "activate": 20544,
  "ravaged": 25537,
  "tents": 17732,
  "monetary": 12194,
  "jean": 3744,
  "worry": 4737,
  "filling": 8110,
  "##ischen": 24488,
  "ska": 24053,
  "cholera": 25916,
  "encompass": 25281,
  "##aux": 13754,
  "15": 2321,
  "##ines": 10586,
  "attend": 5463,
  "blanket": 8768,
  "freight": 8441,
  "##bson": 27355,
  "clamped": 18597,
  "hms": 7220,
  "epstein": 26646,
  "hotter": 22302,
  "travellers": 19284,
  "##ogist": 22522,
  "rhythms": 17900,
  "joints": 17651,
  "realized": 3651,
  "apply": 6611,
  "patty": 17798,
  "patti": 22732,
  "skill": 8066,
  "brewster": 23009,
  "polls": 14592,
  "zombies": 14106,
  "inferno": 21848,
  "[unused785]": 790,
  "##\u03bf": 29730,
  "intuitive": 29202,
  "terri": 26568,
  "hapoel": 24208,
  "[unused348]": 353,
  "walks": 7365,
  "surf": 14175,
  "pas": 14674,
  "graf": 22160,
  "##lio": 12798,
  "baptized": 19775,
  "##sur": 26210,
  "liquor": 13207,
  "beloved": 11419,
  "##hop": 18471,
  "provisions": 8910,
  "##\u1167": 30010,
  "cheney": 23745,
  "carroll": 10767,
  "##ured": 12165,
  "granted": 4379,
  "##nd": 4859,
  "moody": 14434,
  "tiny": 4714,
  "chaos": 8488,
  "behaviors": 15592,
  "oath": 11292,
  "sensitivity": 14639,
  "16th": 5767,
  "stamps": 12133,
  "comedian": 9971,
  "treatments": 13441,
  "unofficially": 29322,
  "driveway": 11202,
  "operation": 3169,
  "henrik": 18745,
  "evaluation": 9312,
  "##asa": 16782,
  "\u661f": 1866,
  "hilarious": 26316,
  "nightmare": 10103,
  "m\u00b2": 7030,
  "\u044e": 1209,
  "1803": 12651,
  "collective": 7268,
  "archipelago": 13888,
  "entertainment": 4024,
  "windshield": 19521,
  "##ka": 2912,
  "instantly": 6880,
  "disapproval": 21406,
  "mortally": 26495,
  "salazar": 25315,
  "espana": 20678,
  "trek": 10313,
  "reelected": 20847,
  "returns": 5651,
  "\u06cc": 1309,
  "flyer": 23821,
  "penn": 9502,
  "friend": 2767,
  "aachen": 29093,
  "trump": 8398,
  "grant": 3946,
  "flores": 17343,
  "six": 2416,
  "buff": 23176,
  "##\u2021": 30062,
  "chili": 20238,
  "traversed": 27797,
  "[unused337]": 342,
  "stemming": 29217,
  "##nham": 20465,
  "1719": 28162,
  "communications": 4806,
  "receipts": 28258,
  "help": 2393,
  "turbulence": 29083,
  "occupied": 4548,
  "scarce": 18782,
  "villa": 6992,
  "##\u1019": 29973,
  "shot": 2915,
  "joo": 28576,
  "435": 24125,
  "[unused29]": 30,
  "philippe": 11169,
  "souls": 9293,
  "solved": 13332,
  "supervisor": 12366,
  "ronin": 29249,
  "realism": 15650,
  "starving": 18025,
  "##ss": 4757,
  "mcc": 23680,
  "hiroshi": 26882,
  "gerais": 29220,
  "##anies": 28064,
  "qualifying": 6042,
  "parked": 9083,
  "admiralty": 14179,
  "indications": 24936,
  "nissan": 16509,
  "##yana": 16811,
  "\u2113": 1577,
  "nino": 20801,
  "little": 2210,
  "##pathy": 20166,
  "basis": 3978,
  "friendships": 28956,
  "robotic": 20478,
  "giacomo": 22873,
  "expanded": 4423,
  "governor": 3099,
  "backup": 10200,
  "jung": 11810,
  "thriller": 10874,
  "##zko": 29002,
  "gauge": 7633,
  "[unused783]": 788,
  "##brook": 9697,
  "incidents": 10444,
  "concentrate": 10152,
  "charismatic": 23916,
  "scoring": 4577,
  "leak": 17271,
  "##dam": 17130,
  "##liffe": 27931,
  "##erson": 18617,
  "troupe": 16017,
  "##mento": 23065,
  "mmm": 25391,
  "\u91d1": 1964,
  "##max": 17848,
  "##till": 28345,
  "audible": 19525,
  "otis": 18899,
  "artillery": 4893,
  "puzzles": 19672,
  "lila": 19286,
  "squirrels": 29384,
  "networking": 14048,
  "cathedral": 5040,
  "##hrer": 17875,
  "swinging": 11820,
  "pittsburgh": 6278,
  "##ago": 23692,
  "discovers": 9418,
  "iq": 26264,
  "vegetables": 11546,
  "##\u3063": 30189,
  "pt": 13866,
  "alt": 12456,
  "dam": 5477,
  "##ls": 4877,
  "leads": 5260,
  "primarily": 3952,
  "renewable": 13918,
  "wheeling": 29142,
  "hee": 18235,
  "##dlow": 27002,
  "##oteric": 29112,
  "shooter": 13108,
  "proudly": 18067,
  "economists": 22171,
  "hamilton": 5226,
  "vancouver": 6930,
  "wool": 12121,
  "techniques": 5461,
  "norms": 17606,
  "matters": 5609,
  "laugh": 4756,
  "humans": 4286,
  "mantle": 16019,
  "citrus": 20418,
  "output": 6434,
  "counter": 4675,
  "##kari": 20224,
  "##champ": 25450,
  "##ais": 15593,
  "##nah": 15272,
  "strong": 2844,
  "challenger": 12932,
  "aztec": 25245,
  "flattened": 16379,
  "azure": 24296,
  "shetland": 25552,
  "##tri": 18886,
  "cube": 14291,
  "event": 2724,
  "alan": 5070,
  "##ege": 24746,
  "fumbled": 20054,
  "\u2212": 1597,
  "weren": 4694,
  "[unused761]": 766,
  "things": 2477,
  "[unused833]": 838,
  "heartbeat": 12251,
  "estrada": 26482,
  "ford": 4811,
  "ashes": 11289,
  "32nd": 20628,
  "irwin": 17514,
  "pink": 5061,
  "##hawks": 16043,
  "[unused460]": 465,
  "lawsuits": 20543,
  "sued": 12923,
  "comparing": 13599,
  "smells": 14747,
  "##\u8ecd": 30481,
  "emir": 23434,
  "je": 15333,
  "clubhouse": 22067,
  "zoning": 27462,
  "reconstruction": 8735,
  "gangster": 20067,
  "##logie": 27095,
  "humiliated": 26608,
  "confined": 12302,
  "\u2075": 1539,
  "##ndi": 16089,
  "emerged": 6003,
  "jaya": 24120,
  "vt": 28879,
  "masked": 16520,
  "##neas": 26737,
  "myriad": 25028,
  "dispatch": 18365,
  "shore": 5370,
  "jp": 16545,
  "##leigh": 13615,
  "profile": 6337,
  "hartley": 20955,
  "##uls": 28426,
  "correspond": 17254,
  "saved": 5552,
  "really": 2428,
  "watched": 3427,
  "beyond": 3458,
  "##resh": 21898,
  "##fa": 7011,
  "intercity": 20651,
  "ann": 5754,
  "purple": 6379,
  "worldwide": 4969,
  "presiding": 18131,
  "landon": 20642,
  "outs": 21100,
  "giant": 5016,
  "##\u211d": 30107,
  "orthodox": 6244,
  "##nous": 18674,
  "kinship": 27866,
  "##ones": 21821,
  "ars": 29393,
  "\u5ba3": 1823,
  "compressed": 16620,
  "workshop": 8395,
  "lovers": 10205,
  "horticultural": 26235,
  "gustave": 27973,
  "iconic": 14430,
  "\u6c11": 1892,
  "samson": 18375,
  "reprinted": 13603,
  "bounds": 19202,
  "companions": 11946,
  "crime": 4126,
  "[unused124]": 129,
  "devin": 23601,
  "\u307e": 1677,
  "liv": 22135,
  "[unused275]": 280,
  "sulawesi": 29078,
  "90s": 17233,
  "corners": 8413,
  "h": 1044,
  "[unused872]": 877,
  "##rence": 24413,
  "rendered": 10155,
  "\u02d0": 1150,
  "singer": 3220,
  "##opsis": 22599,
  "##\u30d2": 30245,
  "spun": 7455,
  "forgiven": 24280,
  "##ise": 5562,
  "eton": 21687,
  "athens": 7571,
  "drug": 4319,
  "##tani": 17681,
  "thousands": 5190,
  "nu": 16371,
  "##ban": 8193,
  "does": 2515,
  "##ments": 8163,
  "our": 2256,
  "aids": 8387,
  "1690": 24765,
  "pointed": 4197,
  "intro": 17174,
  "vain": 15784,
  "body": 2303,
  "bags": 8641,
  "natives": 12493,
  "clean": 4550,
  "##kali": 28613,
  "rowe": 20538,
  "gao": 17377,
  "gust": 26903,
  "##sh": 4095,
  "##tify": 27351,
  "federico": 20493,
  "robes": 17925,
  "\u6226": 1856,
  "sampled": 18925,
  "dawson": 11026,
  "investigating": 11538,
  "reuben": 17294,
  "##gt": 13512,
  "34th": 20460,
  "lenses": 15072,
  "##hu": 6979,
  "sensed": 10596,
  "clergy": 11646,
  "industrialist": 21691,
  "bartender": 15812,
  "##50": 12376,
  "correction": 18140,
  "clarified": 20485,
  "triangular": 14023,
  "partnering": 27001,
  "aerodynamic": 28033,
  "mcdonald": 9383,
  "##lean": 20898,
  "glitter": 27566,
  "orthogonal": 28721,
  "distracting": 25012,
  "ace": 9078,
  "##\u793e": 30450,
  "technically": 10892,
  "stained": 9702,
  "hanging": 5689,
  "diaspora": 18239,
  "morris": 6384,
  "obtained": 4663,
  "##mute": 26746,
  "momentum": 11071,
  "##burgh": 15496,
  "jack": 2990,
  "dangers": 16796,
  "he": 2002,
  "coliseum": 18338,
  "##no": 3630,
  "maintain": 5441,
  "transfer": 4651,
  "[unused937]": 942,
  "\u9053": 1957,
  "##oue": 27872,
  "scandals": 29609,
  "calls": 4455,
  "##pass": 15194,
  "cake": 9850,
  "moines": 23286,
  "guerrilla": 15722,
  "##nti": 16778,
  "##horpe": 22044,
  "pipes": 12432,
  "celaena": 29252,
  "##\u094b": 29879,
  "morse": 17107,
  "adherence": 29235,
  "rotated": 20931,
  "disappear": 10436,
  "deserts": 28858,
  "combatants": 26622,
  "israel": 3956,
  "gracefully": 28266,
  "hammersmith": 28420,
  "tori": 23413,
  "twitch": 19435,
  "conrad": 10931,
  "remarkably": 17431,
  "braves": 13980,
  "1735": 26063,
  "\uff09": 1988,
  "126": 14010,
  "impress": 17894,
  "countered": 17970,
  "\u2070": 1536,
  "pathways": 16910,
  "kabul": 21073,
  "sights": 15925,
  "##mas": 9335,
  "breakfast": 6350,
  "bred": 13680,
  "medial": 23828,
  "##rell": 16230,
  "accumulated": 14830,
  "something": 2242,
  "serve": 3710,
  "##connected": 24230,
  "##thor": 27844,
  "##27": 22907,
  "##orough": 26388,
  "mentions": 9704,
  "drafted": 7462,
  "shen": 21882,
  "neighborhood": 5101,
  "topping": 22286,
  "##uld": 21285,
  "dialects": 11976,
  "builder": 12508,
  "dementia": 28767,
  "seven": 2698,
  "rovers": 9819,
  "san": 2624,
  "sabotage": 20223,
  "brings": 7545,
  "dental": 11394,
  "primitive": 10968,
  "guitars": 7334,
  "auxiliary": 9830,
  "emissions": 11768,
  "welsh": 6124,
  "gay": 5637,
  "jiang": 20613,
  "##om": 5358,
  "\u5e74": 1840,
  "serials": 28172,
  "harness": 17445,
  "##dro": 22196,
  "tear": 7697,
  "rouge": 12801,
  "island": 2479,
  "bicycle": 10165,
  "malacca": 28481,
  "excavations": 14018,
  "billing": 25640,
  "priest": 5011,
  "##osity": 25949,
  "explorer": 10566,
  "loire": 20399,
  "outlying": 25376,
  "penang": 21812,
  "minneapolis": 11334,
  "guo": 22720,
  "sensing": 13851,
  "austria": 5118,
  "dina": 26146,
  "vow": 19076,
  "##\u05e5": 29808,
  "reprise": 16851,
  "##\u79be": 30453,
  "##kson": 26579,
  "flotilla": 17150,
  "obscene": 27744,
  "ranging": 7478,
  "theatre": 3004,
  "##year": 29100,
  "clapton": 24705,
  "refugees": 8711,
  "representative": 4387,
  "leaps": 29195,
  "created": 2580,
  "[unused557]": 562,
  "alive": 4142,
  "[unused39]": 40,
  "tested": 7718,
  "##bos": 15853,
  "lai": 21110,
  "78": 6275,
  "##tension": 29048,
  "classic": 4438,
  "benji": 27231,
  "dream": 3959,
  "nephew": 7833,
  "##erate": 22139,
  "vendor": 21431,
  "ambulance": 10771,
  "ex": 4654,
  "almighty": 26668,
  "##logical": 9966,
  "##ddin": 18277,
  "\u10d9": 1446,
  "rouen": 27030,
  "temperament": 26270,
  "overs": 15849,
  "##18": 15136,
  "##\u0442": 22919,
  "piazza": 22463,
  "ja": 14855,
  "\u5929": 1811,
  "problematic": 18636,
  "spill": 14437,
  "enemies": 6716,
  "pricing": 20874,
  "snacks": 27962,
  "ibn": 7839,
  "sparhawk": 13709,
  "##ana": 5162,
  "underwood": 22751,
  "##vez": 26132,
  "interfered": 28976,
  "pudding": 29593,
  "blah": 27984,
  "sarah": 4532,
  "calmly": 12885,
  "supports": 6753,
  "expelled": 10016,
  "received": 2363,
  "[unused552]": 557,
  "willis": 12688,
  "##giri": 23243,
  "bonds": 9547,
  "current": 2783,
  "according": 2429,
  "advisers": 24205,
  "gravel": 11127,
  "lands": 4915,
  "getting": 2893,
  "##ronia": 28140,
  "che": 18178,
  "jody": 27562,
  "nah": 20976,
  "usb": 18833,
  "##\u0430\u043d": 28995,
  "320": 13710,
  "moments": 5312,
  "##iner": 26455,
  "larry": 6554,
  "1769": 20663,
  "lies": 3658,
  "gliding": 20292,
  "hastily": 15789,
  "releases": 7085,
  "##\u10d9": 29982,
  "balcony": 11673,
  "##grass": 19673,
  "noting": 9073,
  "guerrero": 16938,
  "gaddafi": 28924,
  "flaming": 19091,
  "1689": 22685,
  "##ott": 14517,
  "##hia": 12995,
  "flickering": 20046,
  "[unused765]": 770,
  "[unused616]": 621,
  "##\u8033": 30463,
  "delightful": 26380,
  "##mental": 26901,
  "[unused525]": 530,
  "olson": 21583,
  "revenues": 12594,
  "pandora": 19066,
  "edible": 21006,
  "fay": 23201,
  "cereal": 20943,
  "disorder": 8761,
  "alterations": 16705,
  "shiver": 13277,
  "##ounded": 26240,
  "##ulsive": 23004,
  "reactivated": 28577,
  "1772": 17483,
  "[unused439]": 444,
  "surfing": 19967,
  "goth": 25976,
  "disconnected": 23657,
  "##get": 18150,
  "poisonous": 22641,
  "rodeo": 18936,
  "willed": 22705,
  "savage": 9576,
  "70": 3963,
  "audio": 5746,
  "digitally": 18397,
  "ch": 10381,
  "[unused69]": 70,
  "kb": 21677,
  "dolphins": 13600,
  "gesturing": 22317,
  "realised": 11323,
  "islands": 3470,
  "##\u0281": 29694,
  "sheds": 25999,
  "[unused626]": 631,
  "ancestor": 13032,
  "regulated": 12222,
  "##lved": 26832,
  "##ala": 7911,
  "pietro": 15541,
  "tempest": 22553,
  "kota": 23856,
  "nearest": 7205,
  "tar": 16985,
  "make": 2191,
  "##cliffe": 18115,
  "stamp": 11359,
  "tensor": 23435,
  "bellevue": 26756,
  "3rd": 3822,
  "intimidating": 24439,
  "publishers": 8544,
  "\u091f": 1320,
  "senate": 4001,
  "arrives": 8480,
  "[unused435]": 440,
  "hunan": 27374,
  "##ogo": 22844,
  "##du": 8566,
  "nationally": 9582,
  "##tch": 10649,
  "contender": 20127,
  "aaa": 13360,
  "##marks": 27373,
  "originates": 16896,
  "##yoshi": 19196,
  "##eased": 25063,
  "amsterdam": 7598,
  "peninsular": 22682,
  "rotterdam": 15632,
  "yelled": 7581,
  "classifications": 26739,
  "6": 1020,
  "sculptor": 10160,
  "residences": 14094,
  "carolina": 3792,
  "chun": 20979,
  "##head": 4974,
  "nod": 7293,
  "relating": 8800,
  "perfectly": 6669,
  "wax": 13844,
  "melted": 12501,
  "bloomington": 26372,
  "pontiac": 24538,
  "admit": 6449,
  "isolate": 27152,
  "##pio": 22071,
  "programs": 3454,
  "councils": 10784,
  "raceway": 23018,
  "##ury": 13098,
  "[unused92]": 93,
  "[unused628]": 633,
  "quality": 3737,
  "lounge": 11549,
  "reprint": 25364,
  "##lite": 22779,
  "nascar": 11838,
  "witches": 12566,
  "expeditions": 15014,
  "egg": 8288,
  "clutches": 29497,
  "regulators": 25644,
  "speaker": 5882,
  "##kko": 22426,
  "external": 6327,
  "roosevelt": 8573,
  "hiss": 19074,
  "##tze": 23102,
  "\u00a35": 27813,
  "referees": 25118,
  "storms": 12642,
  "duration": 9367,
  "##lce": 23314,
  "denotes": 14796,
  "dull": 10634,
  "[unused993]": 998,
  "abbreviated": 12066,
  "compounds": 10099,
  "##izing": 6026,
  "rig": 19838,
  "carnegie": 11298,
  "hess": 23484,
  "secure": 5851,
  "lightweight": 12038,
  "response": 3433,
  "##dhi": 19114,
  "cayman": 26164,
  "aqua": 28319,
  "mae": 11530,
  "dissent": 24116,
  "schwarz": 29058,
  "repeatedly": 8385,
  "smarter": 25670,
  "secession": 22965,
  "companies": 3316,
  "reproduced": 22296,
  "##\u4e94": 30279,
  "##sitor": 28307,
  "collier": 20466,
  "constable": 12294,
  "pained": 22295,
  "##logy": 6483,
  "vicky": 22845,
  "15th": 6286,
  "irving": 12415,
  "roared": 14242,
  "##pala": 19636,
  "delighted": 15936,
  "condemned": 10033,
  "##qua": 16211,
  "\u0986": 1348,
  "nash": 10594,
  "##rath": 27362,
  "eddie": 5752,
  "relevant": 7882,
  "[unused695]": 700,
  "elect": 11322,
  "nuclei": 23767,
  "##urst": 29402,
  "foe": 22277,
  "gaston": 18572,
  "conquest": 9187,
  "malaysia": 6027,
  "##dly": 18718,
  "shadowy": 22801,
  "examined": 8920,
  "lombardy": 27728,
  "zinc": 15813,
  "##zers": 16750,
  "##kon": 19648,
  "born": 2141,
  "lock": 5843,
  "greasy": 26484,
  "representing": 5052,
  "proportion": 10817,
  "##\u68ee": 30408,
  "baja": 19497,
  "nelly": 29498,
  "selling": 4855,
  "[unused285]": 290,
  "hypothetical": 25613,
  "indicted": 21801,
  "##elled": 21148,
  "generations": 8213,
  "beating": 6012,
  "tinted": 25577,
  "##cz": 27966,
  "##vances": 26711,
  "simi": 28684,
  "distinguish": 10782,
  "strolled": 20354,
  "##world": 11108,
  "##open": 26915,
  "polling": 17888,
  "bubbles": 17255,
  "organized": 4114,
  "mighty": 10478,
  "nelson": 5912,
  "##ako": 20411,
  "premier": 4239,
  "##edd": 22367,
  "ancestry": 11377,
  "sporadic": 24590,
  "bullock": 25200,
  "syntax": 20231,
  "hermes": 24127,
  "##ski": 5488,
  "memoir": 12558,
  "inadequate": 14710,
  "infamous": 14429,
  "dependent": 7790,
  "applicant": 23761,
  "##\u2016": 30054,
  "upcoming": 9046,
  "##ives": 24653,
  "[unused992]": 997,
  "intercollegiate": 21587,
  "##dents": 28986,
  "comet": 15699,
  "195": 17317,
  "controlled": 4758,
  "ridiculous": 9951,
  "##wen": 12449,
  "prescott": 20719,
  "##urgent": 27176,
  "italiana": 28059,
  "critique": 16218,
  "##cco": 21408,
  "owen": 7291,
  "baked": 17776,
  "[unused189]": 194,
  "martina": 23508,
  "expecting": 8074,
  "jun": 12022,
  "struggled": 6915,
  "promoter": 15543,
  "rum": 19379,
  "privileges": 14310,
  "##osition": 19234,
  "##plex": 19386,
  "breeding": 8119,
  "acquisitions": 19530,
  "essendon": 25149,
  "predict": 16014,
  "##\u9fb8": 30509,
  "guantanamo": 23094,
  "##logue": 24277,
  "[unused974]": 979,
  "ugly": 9200,
  "vis": 25292,
  "patrice": 29527,
  "prefect": 19402,
  "water": 2300,
  "cooler": 14976,
  "ambition": 16290,
  "became": 2150,
  "tag": 6415,
  "##cp": 21906,
  "eaten": 8828,
  "##\u03bd": 16177,
  "rivalry": 10685,
  "perpetual": 18870,
  "kidding": 12489,
  "##400": 29537,
  "reading": 3752,
  "##verance": 21998,
  "crust": 19116,
  "peanut": 21443,
  "who": 2040,
  "##ciency": 29125,
  "##anza": 16076,
  "\u66f8": 1871,
  "upscale": 28276,
  "sicilian": 22584,
  "madame": 10602,
  "geographically": 20969,
  "innocent": 7036,
  "incomes": 29373,
  "stein": 14233,
  "civilized": 25825,
  "ville": 20184,
  "ninety": 13568,
  "travelling": 8932,
  "socialists": 21633,
  "wryly": 28325,
  "##pr": 18098,
  "nail": 13774,
  "chandra": 16469,
  "vacation": 10885,
  "entrusted": 18011,
  "lena": 14229,
  "periodically": 18043,
  "brute": 26128,
  "nantes": 25387,
  "breakthrough": 12687,
  "canopy": 14582,
  "highlighted": 11548,
  "researched": 18800,
  "##adia": 25205,
  "cha": 15775,
  "inscribed": 14551,
  "chopra": 28826,
  "springer": 17481,
  "mongolia": 13906,
  "wendy": 12815,
  "##oris": 21239,
  "remembrance": 19451,
  "ronald": 8923,
  "##cino": 21081,
  "tended": 11121,
  "##thed": 23816,
  "##wana": 21761,
  "flickered": 15999,
  "##\u1109": 29997,
  "390": 20024,
  "##quitable": 28298,
  "##nica": 12782,
  "dormant": 22170,
  "##torm": 20654,
  "moran": 17866,
  "entity": 9178,
  "petite": 20146,
  "##awan": 25903,
  "torch": 12723,
  "[unused509]": 514,
  "quake": 27785,
  "carmichael": 23537,
  "##car": 10010,
  "bala": 21451,
  "##raph": 24342,
  "aspects": 5919,
  "##uaries": 22579,
  "surprising": 11341,
  "##iii": 28954,
  "asha": 24595,
  "metabolism": 18089,
  "jessie": 10934,
  "andy": 5557,
  "tends": 12102,
  "matrices": 21520,
  "thoroughly": 12246,
  "republished": 24476,
  "fulfill": 13883,
  "jennifer": 7673,
  "seek": 6148,
  "##mund": 25574,
  "coupling": 19780,
  "safeguard": 28805,
  "debt": 7016,
  "packs": 15173,
  "playoff": 7808,
  "analyzed": 16578,
  "cumulative": 23260,
  "laboratories": 12030,
  "operatives": 25631,
  "particle": 10811,
  "rapidly": 5901,
  "derivation": 29280,
  "maria": 3814,
  "hurts": 13403,
  "##iana": 11410,
  "\u8033": 1937,
  "\u0582": 1238,
  "##\u026c": 29687,
  "##lese": 24527,
  "1926": 4881,
  "corresponded": 27601,
  "##omp": 25377,
  "villiers": 25333,
  "##vie": 13469,
  "operated": 3498,
  "benign": 28378,
  "##\u0e07": 29946,
  "[unused519]": 524,
  "[unused562]": 567,
  "eats": 20323,
  "futuristic": 28971,
  "rumbling": 26670,
  "boxing": 8362,
  "##ayo": 28852,
  "obligation": 14987,
  "versailles": 18346,
  "thieves": 15862,
  "##\u30e0": 30251,
  "dense": 9742,
  "yugoslav": 12292,
  "1852": 8784,
  "##lun": 26896,
  "gnome": 25781,
  "phased": 21718,
  "\u00b1": 1081,
  "##ghton": 21763,
  "negotiation": 19905,
  "##hand": 11774,
  "irritated": 15560,
  "emphasizes": 20618,
  "##nction": 27989,
  "technical": 4087,
  "##emon": 26941,
  "254": 22234,
  "translates": 16315,
  "punches": 17957,
  "un": 4895,
  "[unused326]": 331,
  "25": 2423,
  "scorpion": 22015,
  "televised": 13762,
  "white": 2317,
  "blackburn": 13934,
  "1766": 21410,
  "farms": 8623,
  "jacques": 7445,
  "##fus": 25608,
  "photographed": 16164,
  "sends": 10255,
  "\u2013": 1516,
  "rosenberg": 21069,
  "liberties": 18271,
  "sped": 16887,
  "##tite": 23096,
  "84": 6391,
  "peers": 12746,
  "##hak": 20459,
  "[unused893]": 898,
  "pitted": 25895,
  "bobo": 27418,
  "chalmers": 29069,
  "refer": 6523,
  "##:": 29627,
  "\u0940": 1342,
  "dagger": 10794,
  "scratched": 15047,
  "29th": 16318,
  "pinning": 22866,
  "admissions": 20247,
  "status": 3570,
  "indefinite": 25617,
  "teammates": 13220,
  "connecticut": 6117,
  "nano": 28991,
  "##san": 8791,
  "sandwiches": 22094,
  "transmit": 19818,
  "moths": 14885,
  "unidentified": 20293,
  "##lassified": 24938,
  "popularly": 16071,
  "prick": 24858,
  "[unused715]": 720,
  "##rs": 2869,
  "liter": 23675,
  "##esa": 22447,
  "\u09be": 1378,
  "##agne": 25440,
  "removal": 8208,
  "##aine": 18175,
  "siegfried": 25948,
  "farmhouse": 16870,
  "highlights": 11637,
  "beverly": 12218,
  "001": 25604,
  "324": 27234,
  "peerage": 18760,
  "cheers": 21250,
  "##\u91ce": 30489,
  "himalayan": 28333,
  "sand": 5472,
  "##orth": 28610,
  "household": 4398,
  "fascinated": 15677,
  "storage": 5527,
  "eps": 20383,
  "##hong": 19991,
  "juveniles": 25406,
  "cologne": 10918,
  "##ooped": 20671,
  "##wick": 7184,
  "[unused883]": 888,
  "[unused375]": 380,
  "##olic": 23518,
  "eternity": 12715,
  "houston": 5395,
  "conflict": 4736,
  "##rigues": 22934,
  "##listic": 27348,
  "lingered": 17645,
  "occupying": 13992,
  "slang": 21435,
  "##\u00a6": 29649,
  "integrated": 6377,
  "\u044a": 1205,
  "fra": 25312,
  "kicks": 14590,
  "martha": 9246,
  "lawrence": 5623,
  "abu": 8273,
  "salmon": 11840,
  "##yan": 7054,
  "engraved": 16328,
  "blew": 8682,
  "##osh": 17369,
  "romanized": 7651,
  "argus": 25294,
  "computed": 24806,
  "alternate": 6585,
  "patel": 20455,
  "enters": 8039,
  "luca": 15604,
  "wrexham": 27119,
  "ethernet": 26110,
  "##cb": 27421,
  "##iji": 27821,
  "dos": 9998,
  "##xious": 25171,
  "##\u5fa1": 30373,
  "saunders": 15247,
  "proves": 16481,
  "escorts": 24877,
  "pigeons": 27567,
  "ones": 3924,
  "[unused514]": 519,
  "glanced": 3887,
  "antiquities": 21387,
  "impatient": 17380,
  "rejected": 5837,
  "seville": 18983,
  "\u91ce": 1963,
  "variants": 10176,
  "[unused41]": 42,
  "whale": 13156,
  "plea": 14865,
  "##unce": 17457,
  "##\u05e0": 29803,
  "vascular": 21449,
  "289": 27054,
  "[unused648]": 653,
  "interventions": 19388,
  "##\u751f": 30436,
  "##tary": 18219,
  "lump": 15116,
  "namibia": 15408,
  "recently": 3728,
  "minus": 15718,
  "airways": 13095,
  "##enna": 24397,
  "cunningham": 13652,
  "chemicals": 12141,
  "inscriptions": 12920,
  "carole": 24348,
  "costing": 22173,
  "[unused376]": 381,
  "treatise": 15326,
  "albuquerque": 19334,
  "##\uff1f": 30520,
  "deviation": 24353,
  "##ntly": 20630,
  "##oint": 25785,
  "unanimous": 13604,
  "custer": 28888,
  "##cake": 17955,
  "luke": 5355,
  "##bians": 26376,
  "representatives": 4505,
  "historians": 7862,
  "minded": 13128,
  "cardinal": 7185,
  "##\u2191": 30112,
  "individually": 14258,
  "\u6238": 1857,
  "vikram": 29063,
  "clung": 14752,
  "##woods": 25046,
  "oxidation": 19577,
  "trained": 4738,
  "regulatory": 10738,
  "##ania": 13241,
  "pit": 6770,
  "approach": 3921,
  "identifiable": 27800,
  "##\u05e3": 29806,
  "opener": 16181,
  "deceased": 10181,
  "\u201c": 1523,
  "occupations": 23374,
  "surprised": 4527,
  "##sund": 25168,
  "random": 6721,
  "##lag": 17802,
  "520": 19611,
  "beacon": 14400,
  "individual": 3265,
  "baseline": 26163,
  "\u5c71": 1831,
  "generosity": 26161,
  "loch": 14941,
  "councillor": 10674,
  "[unused467]": 472,
  "comedians": 25119,
  "liability": 14000,
  "##tling": 15073,
  "healer": 19783,
  "securing": 12329,
  "amount": 3815,
  "always": 2467,
  "\u3008": 1637,
  "##ivism": 22486,
  "selma": 28112,
  "##tag": 15900,
  "persistence": 28297,
  "##ated": 4383,
  "##arian": 12199,
  "pub": 9047,
  "geschichte": 28299,
  "##uta": 13210,
  "happiness": 8404,
  "paulo": 9094,
  "positions": 4460,
  "determine": 5646,
  "billionaire": 22301,
  "colonial": 5336,
  "##lk": 13687,
  "[unused209]": 214,
  "\u0430": 1180,
  "hurst": 26405,
  "descriptions": 13271,
  "whisky": 21265,
  "##\u307e": 30203,
  "gothenburg": 22836,
  "meantime": 12507,
  "jace": 10352,
  "grams": 20372,
  "##beck": 12750,
  "transylvania": 20816,
  "stimulated": 25194,
  "buys": 23311,
  "engagement": 8147,
  "totaling": 21798,
  "fury": 8111,
  "hudson": 6842,
  "surname": 11988,
  "hon": 10189,
  "381": 29335,
  "[unused406]": 411,
  "incorporated": 5100,
  "hamlet": 8429,
  "##fication": 10803,
  "blast": 8479,
  "community": 2451,
  "##ct": 6593,
  "historia": 19891,
  "architecture": 4294,
  "traveled": 6158,
  "modifications": 12719,
  "##lit": 15909,
  "##ith": 8939,
  "[unused969]": 974,
  "ahmedabad": 27249,
  "minas": 21750,
  "damp": 10620,
  "##\u2228": 30130,
  "crush": 10188,
  "af": 21358,
  "wept": 24966,
  "2d": 14134,
  "oracle": 14721,
  "##st": 3367,
  "##gina": 20876,
  "frowning": 14587,
  "soyuz": 29412,
  "[unused890]": 895,
  "gasped": 8535,
  "wrestlers": 14039,
  "thank": 4067,
  "hoax": 28520,
  "ghana": 9701,
  "nowadays": 13367,
  "\u2282": 1610,
  "slump": 28702,
  "\u82f1": 1941,
  "oblique": 20658,
  "voting": 6830,
  "waitress": 13877,
  "holy": 4151,
  "278": 24709,
  "boasts": 21979,
  "causal": 28102,
  "amazement": 21606,
  "deaf": 12419,
  "nonetheless": 9690,
  "cargo": 6636,
  "ships": 3719,
  "shouted": 6626,
  "commander": 3474,
  "factors": 5876,
  "124": 13412,
  "##cer": 17119,
  "\u0e22": 1416,
  "rudd": 25298,
  "eucalyptus": 27111,
  "quoting": 27394,
  "\u8eca": 1954,
  "50": 2753,
  "therese": 25598,
  "manifest": 19676,
  "cyclic": 23750,
  "qualified": 4591,
  "predators": 12630,
  "##now": 19779,
  "gong": 17242,
  "poly": 26572,
  "salvador": 10582,
  "##mie": 9856,
  "\u02b0": 1140,
  "sax": 19656,
  "morales": 17103,
  "875": 27658,
  "du": 4241,
  "taxonomic": 27691,
  "##hol": 14854,
  "donegal": 25415,
  "scriptures": 22481,
  "wheelbase": 29141,
  "junk": 18015,
  "locks": 11223,
  "absent": 9962,
  "paired": 12739,
  "shrugged": 6345,
  "[unused850]": 855,
  "volkswagen": 18817,
  "satisfaction": 9967,
  "##ttered": 14795,
  "relation": 7189,
  "speculation": 12143,
  "turner": 6769,
  "##dez": 24601,
  "converge": 28314,
  "mandal": 24373,
  "dead": 2757,
  "##uke": 15851,
  "bush": 5747,
  "##\u044a": 29755,
  "tanzania": 11959,
  "hint": 9374,
  "maintaining": 8498,
  "streams": 9199,
  "##zed": 5422,
  "downing": 22501,
  "drove": 5225,
  "##uron": 21017,
  "lucky": 5341,
  "##kis": 14270,
  "was": 2001,
  "basha": 26074,
  "suspects": 13172,
  "##ods": 20620,
  "leigh": 11797,
  "settle": 7392,
  "##eld": 14273,
  "masculine": 14818,
  "furiously": 20322,
  "outsider": 21002,
  "streaks": 21295,
  "hm": 20287,
  "pills": 15345,
  "##gers": 15776,
  "steer": 20634,
  "lung": 11192,
  "municipalities": 7602,
  "concepcion": 27331,
  "oversized": 21698,
  "sited": 28603,
  "spherical": 18970,
  "app": 10439,
  "speech": 4613,
  "fission": 27521,
  "temperature": 4860,
  "excursion": 26144,
  "geologic": 22125,
  "maroon": 22222,
  "derbyshire": 15207,
  "intersection": 6840,
  "##lice": 13231,
  "leaving": 2975,
  "##\u00b9": 27904,
  "##hort": 27794,
  "\u5fc4": 1850,
  "digger": 28661,
  "##xing": 19612,
  "vol": 5285,
  "\u0111": 1102,
  "condition": 4650,
  "citizenship": 9068,
  "intending": 16533,
  "##ology": 6779,
  "relaxing": 19613,
  "##49": 26224,
  "##vet": 19510,
  "deadline": 15117,
  "catering": 18640,
  "layne": 22452,
  "[unused713]": 718,
  "\u5065": 1768,
  "nominations": 9930,
  "underwear": 14236,
  "hesitated": 9369,
  "conduct": 6204,
  "phones": 11640,
  "[unused40]": 41,
  "suns": 19352,
  "jefferson": 7625,
  "stronghold": 16995,
  "alien": 7344,
  "exchequer": 28889,
  "complained": 10865,
  "irregular": 12052,
  "historic": 3181,
  "fifteenth": 16249,
  "michel": 8709,
  "huskies": 29471,
  "ginger": 14580,
  "possess": 10295,
  "manor": 6952,
  "depends": 9041,
  "##rini": 22612,
  "191": 19871,
  "poster": 13082,
  "[unused362]": 367,
  "sherry": 22268,
  "life": 2166,
  "recounted": 22906,
  "bore": 8501,
  "finer": 26954,
  "pu": 16405,
  "stephen": 4459,
  "recession": 19396,
  "45th": 24634,
  "invasions": 23536,
  "1751": 24440,
  "521": 26963,
  "promotes": 14067,
  "ref": 25416,
  "[unused589]": 594,
  "##\u6b62": 30413,
  "stu": 24646,
  "\u90ce": 1958,
  "##ero": 10624,
  "##aria": 10980,
  "mo": 9587,
  "##ive": 3512,
  "doors": 4303,
  "ambushed": 22168,
  "expansive": 25145,
  "impose": 17607,
  "chiefs": 9058,
  "pitched": 8219,
  "doherty": 23798,
  "##\u2154": 30110,
  "##ael": 21147,
  "hodge": 23148,
  "##\u2666": 30153,
  "##ired": 27559,
  "either": 2593,
  "foyer": 16683,
  "1871": 7428,
  "grayson": 17556,
  "afl": 10028,
  "dal": 17488,
  "1963": 3699,
  "hoping": 5327,
  "3000": 11910,
  "frost": 10097,
  "salesman": 18968,
  "respect": 4847,
  "eliza": 13234,
  "josephine": 16117,
  "refuse": 10214,
  "bhutan": 18768,
  "paddington": 26318,
  "heinrich": 10952,
  "##section": 29015,
  "teamed": 12597,
  "confront": 14323,
  "##ddy": 14968,
  "piece": 3538,
  "stroked": 11699,
  "antibiotics": 24479,
  "shouts": 15701,
  "##laise": 25122,
  "1837": 9713,
  "[unused268]": 273,
  "\u110b": 1463,
  "jackie": 9901,
  "fried": 13017,
  "cot": 26046,
  "acquainted": 19056,
  "rousseau": 26868,
  "shortage": 15843,
  "##antes": 24985,
  "snatched": 14177,
  "flight": 3462,
  "highlight": 12944,
  "wildly": 13544,
  "compute": 24134,
  "communes": 16569,
  "##ap": 9331,
  "chad": 9796,
  "budge": 24981,
  "alberto": 12007,
  "should": 2323,
  "analog": 11698,
  "recognizing": 14622,
  "quran": 21288,
  "double": 3313,
  "biker": 28988,
  "sight": 4356,
  "futures": 17795,
  "clandestine": 24450,
  "signed": 2772,
  "##sonic": 18585,
  "effects": 3896,
  "##itzer": 19253,
  "##mpton": 26793,
  "\u1d35": 1493,
  "commentators": 15957,
  "##lang": 25023,
  "fascinating": 17160,
  "##zle": 29247,
  "##berg": 4059,
  "##kovsky": 23829,
  "undefeated": 15188,
  "ontario": 4561,
  "flying": 3909,
  "stench": 21555,
  "spartan": 20670,
  "wig": 24405,
  "handing": 13041,
  "randomly": 18154,
  "subgenus": 25356,
  "##estra": 26199,
  "1705": 29326,
  "[unused352]": 357,
  "##ril": 15928,
  "190": 11827,
  "finale": 9599,
  "haven": 4033,
  "reluctant": 11542,
  "owens": 14824,
  "swing": 7370,
  "##tma": 29418,
  "pic": 27263,
  "fukuoka": 26998,
  "##rmin": 27512,
  "402": 28048,
  "##rran": 28327,
  "##\u308a": 30212,
  "\u8ecd": 1955,
  "spicy": 25482,
  "renee": 17400,
  "##yt": 22123,
  "hurry": 9241,
  "millions": 8817,
  "[unused629]": 634,
  "\u301c": 1645,
  "background": 4281,
  "dominated": 6817,
  "##\u9673": 30498,
  "##\u09ac": 29904,
  "[unused137]": 142,
  "coco": 25033,
  "sikhs": 26697,
  "laden": 14887,
  "constrained": 27570,
  "retracted": 28214,
  "strategically": 23972,
  "##rsa": 22381,
  "##dora": 24562,
  "horst": 28565,
  "etudes": 25041,
  "tango": 17609,
  "furlongs": 26602,
  "##mia": 10092,
  "koppen": 20139,
  "mohammad": 12050,
  "rematch": 18229,
  "adulthood": 20480,
  "1885": 6571,
  "##pro": 21572,
  "##udeau": 27627,
  "cutler": 24975,
  "[unused231]": 236,
  "sulfate": 26754,
  "anderson": 5143,
  "brodie": 27379,
  "wilderness": 9917,
  "antoine": 12445,
  "##avs": 29553,
  "##bner": 29388,
  "monthly": 7058,
  "peoples": 7243,
  "spawning": 27957,
  "##dicate": 16467,
  "uncommon": 13191,
  "[unused971]": 976,
  "healy": 25706,
  "##tara": 27115,
  "besides": 4661,
  "verlag": 14552,
  "brightened": 28996,
  "##itical": 26116,
  "##\u0915": 29851,
  "bilbao": 25427,
  "bandit": 25334,
  "standings": 11869,
  "intently": 16170,
  "##ware": 8059,
  "merging": 16468,
  "disciples": 17102,
  "40": 2871,
  "benefactor": 27398,
  "graphic": 8425,
  "compare": 12826,
  "dubai": 11558,
  "exception": 6453,
  "##\u1d49": 30035,
  "suffrage": 15178,
  "##rock": 16901,
  "synthesizer": 13564,
  "mg": 11460,
  "postseason": 17525,
  "##inge": 23496,
  "triangles": 27189,
  "##drum": 21884,
  "\u0937": 1337,
  "70s": 17549,
  "##ahu": 21463,
  "sibling": 22941,
  "too": 2205,
  "tormented": 29026,
  "ke": 17710,
  "##ture": 11244,
  "indicators": 20390,
  "soft": 3730,
  "fleet": 4170,
  "guided": 8546,
  "months": 2706,
  "einstein": 15313,
  "portraits": 9668,
  "reassigned": 18026,
  "##tiv": 29068,
  "creates": 9005,
  "##zzle": 17644,
  "\u044c": 1207,
  "jewelry": 11912,
  "billion": 4551,
  "##\u0643": 29835,
  "subordinate": 15144,
  "titular": 12960,
  "fraction": 12884,
  "foreman": 18031,
  "[unused486]": 491,
  "protocol": 8778,
  "1821": 11723,
  "[unused963]": 968,
  "exist": 4839,
  "172": 18253,
  "bitterly": 19248,
  "pun": 26136,
  "##oy": 6977,
  "1570": 28881,
  "##ara": 5400,
  "carriage": 9118,
  "discourage": 28085,
  "##ston": 7106,
  "anger": 4963,
  "802": 23908,
  "##av": 11431,
  "reverend": 10547,
  "derelict": 28839,
  "indoors": 24274,
  "defiant": 27836,
  "##\u4e3b": 30273,
  "roy": 6060,
  "while": 2096,
  "pick": 4060,
  "unnoticed": 22719,
  "salts": 23480,
  "neurons": 15698,
  "slovene": 18326,
  "grace": 4519,
  "\u221e": 1601,
  "\u306b": 1668,
  "bearings": 21714,
  "rises": 9466,
  "waived": 16301,
  "reunited": 11653,
  "##ali": 11475,
  "tighten": 21245,
  "##ssar": 25556,
  "\u5f8c": 1846,
  "macquarie": 23903,
  "roof": 4412,
  "1695": 29140,
  "medallion": 22541,
  "shoved": 7468,
  "bien": 29316,
  "kochi": 27603,
  "faith": 4752,
  "killed": 2730,
  "drinking": 5948,
  "eponymous": 15248,
  "geoff": 14915,
  "chances": 9592,
  "jo": 8183,
  "\u057e": 1235,
  "1612": 29186,
  "##\uff0f": 30518,
  "francois": 8173,
  "borders": 6645,
  "mutation": 16221,
  "xii": 14371,
  "cheering": 24867,
  "##worm": 22769,
  "inclusive": 18678,
  "guarding": 17019,
  "rome": 4199,
  "##oum": 24778,
  "##\u09bf": 29915,
  "exploitation": 14427,
  "accompanied": 5642,
  "damian": 19507,
  "##uti": 21823,
  "%": 1003,
  "kgb": 25467,
  "##uts": 16446,
  "swallow": 10577,
  "bernard": 6795,
  "liaison": 14975,
  "##2": 2475,
  "porcelain": 17767,
  "235": 17825,
  "museums": 9941,
  "compressor": 29329,
  "aging": 12520,
  "patterned": 25336,
  "di": 4487,
  "\u208a": 1557,
  "hasan": 17000,
  "##shaw": 17980,
  "##bow": 18912,
  "##oot": 17206,
  "##uda": 14066,
  "\u090f": 1314,
  "##tized": 23355,
  "##\u767a": 30440,
  "spectra": 29237,
  "undo": 25672,
  "principles": 6481,
  "capcom": 26861,
  "mickey": 11021,
  "rocks": 5749,
  "##ductive": 26638,
  "chases": 29515,
  "sites": 4573,
  "glances": 13021,
  "mcintyre": 24564,
  "patio": 19404,
  "deng": 26957,
  "red": 2417,
  "baylor": 23950,
  "ambitions": 19509,
  "##iya": 8717,
  "shows": 3065,
  "bonus": 6781,
  "\u05ea": 1267,
  "reacts": 27325,
  "rituals": 13549,
  "rockies": 22366,
  "extracts": 27059,
  "troubled": 11587,
  "1845": 9512,
  "fabrication": 25884,
  "viewed": 7021,
  "consideration": 9584,
  "empires": 23560,
  "rap": 9680,
  "490": 22288,
  "##ama": 8067,
  "##dridge": 21482,
  "uefa": 6663,
  "##fr": 19699,
  "mug": 14757,
  "gaunt": 27534,
  "assault": 6101,
  "closeness": 28398,
  "##rti": 28228,
  "[unused172]": 177,
  "merritt": 26701,
  "##cek": 25368,
  "\u00b9\u2044\u2082": 18728,
  "gma": 20917,
  "blasts": 25829,
  "freeman": 11462,
  "theories": 8106,
  "flower": 6546,
  "fine": 2986,
  "##xia": 14787,
  "##bell": 17327,
  "##mir": 14503,
  "##nian": 11148,
  "continuity": 13717,
  "endurance": 14280,
  "helmut": 24515,
  "oblast": 10379,
  "blanche": 18158,
  "##kai": 11151,
  "chimney": 17321,
  "dung": 29328,
  "esq": 25325,
  "plc": 15492,
  "##gor": 20255,
  "gage": 10012,
  "nr": 17212,
  "peas": 26072,
  "greet": 17021,
  "gerard": 11063,
  "prevent": 4652,
  "\u2090": 1560,
  "##ded": 5732,
  "meg": 12669,
  "indianapolis": 9506,
  "inspection": 10569,
  "absorption": 16326,
  "coronation": 12773,
  "refuses": 10220,
  "dodgers": 13391,
  "##\u2248": 30133,
  "pendant": 23152,
  "[unused722]": 727,
  "pictorial": 28304,
  "lectured": 19206,
  "smug": 20673,
  "stranded": 15577,
  "developing": 4975,
  "rhodes": 10588,
  "sorority": 27600,
  "[unused828]": 833,
  "\u6797": 1881,
  "demonstrated": 7645,
  "premises": 10345,
  "situation": 3663,
  "##\u0e21": 29951,
  "[unused810]": 815,
  "animals": 4176,
  "deeper": 6748,
  "macbeth": 25182,
  "paper": 3259,
  "snowy": 20981,
  "quicker": 19059,
  "slavic": 13838,
  "promo": 19430,
  "reins": 19222,
  "\u0282": 1129,
  "vendors": 17088,
  "hackney": 28425,
  "integrity": 11109,
  "utah": 6646,
  "\u0e19": 1413,
  "smithsonian": 15720,
  "kyle": 7648,
  "[unused726]": 731,
  "[unused887]": 892,
  "##\u3051": 30180,
  "finally": 2633,
  "deterioration": 26118,
  "\u063a": 1289,
  "minority": 7162,
  "##metric": 12589,
  "332": 29327,
  "ecology": 13517,
  "breakers": 24742,
  "solve": 9611,
  "owed": 12232,
  "tend": 7166,
  "participating": 8019,
  "jump": 5376,
  "motif": 16226,
  "rehab": 24497,
  "##\u207b": 30079,
  "hung": 5112,
  "distinguished": 5182,
  "player": 2447,
  "er": 9413,
  "cushion": 22936,
  "wisdom": 9866,
  "museum": 2688,
  "motorsports": 20711,
  "##kill": 15872,
  "aft": 16638,
  "projected": 11310,
  "sadie": 21330,
  "botswana": 19414,
  "grade": 3694,
  "\u0e1e": 1414,
  "views": 5328,
  "cheerfully": 27403,
  "upgraded": 9725,
  "spa": 12403,
  "[unused356]": 361,
  "asa": 17306,
  "bangkok": 12627,
  "geared": 23636,
  "optical": 9380,
  "serves": 4240,
  "blurted": 18751,
  "assumption": 11213,
  "boundaries": 7372,
  "reorganisation": 24934,
  "##at": 4017,
  "livery": 18475,
  "pip": 28315,
  "[unused513]": 518,
  "presenters": 25588,
  "references": 7604,
  "lobes": 24423,
  "extraordinary": 9313,
  "boy": 2879,
  "traced": 9551,
  "##nock": 18057,
  "smoke": 5610,
  "reference": 4431,
  "genera": 11416,
  "transitioned": 23946,
  "structures": 5090,
  "panic": 6634,
  "polite": 13205,
  "knocks": 21145,
  "southernmost": 21787,
  "##ness": 2791,
  "deacon": 14845,
  "pablo": 11623,
  "269": 25717,
  "mastered": 15682,
  "letterman": 26593,
  "hints": 20385,
  "##dun": 27584,
  "teatro": 16038,
  "##wave": 16535,
  "##lowe": 27663,
  "quiz": 19461,
  "philology": 29286,
  "usable": 24013,
  "##graphs": 27341,
  "rite": 14034,
  "##llah": 18599,
  "naga": 26539,
  "##mics": 22924,
  "stocks": 15768,
  "tasmania": 12343,
  "vida": 19830,
  "##icon": 28524,
  "undone": 25757,
  "dresser": 16641,
  "botany": 17018,
  "tape": 6823,
  "basal": 15191,
  "rodents": 28156,
  "burying": 20491,
  "[unused980]": 985,
  "151": 16528,
  "ballast": 28030,
  "deploy": 21296,
  "participated": 4194,
  "gibbs": 15659,
  "cancers": 25409,
  "580": 23712,
  "financed": 13790,
  "definitely": 5791,
  "biodiversity": 17194,
  "\u0564": 1222,
  "epa": 19044,
  "wiped": 8342,
  "stifled": 27146,
  "lush": 16299,
  "\u5f35": 1844,
  "[unused323]": 328,
  "255": 20637,
  "jonny": 26937,
  "hidalgo": 24715,
  "obesity": 24552,
  "fitch": 26062,
  "seam": 25180,
  "##\u5289": 30303,
  "trout": 13452,
  "stated": 3090,
  "expert": 6739,
  "levin": 20206,
  "1b": 26314,
  "ravine": 23188,
  "##zes": 11254,
  "relics": 16712,
  "greensboro": 27905,
  "cold": 3147,
  "valencia": 13083,
  "southern": 2670,
  "lengthy": 12401,
  "arms": 2608,
  "[unused373]": 378,
  "obscure": 14485,
  "camping": 13215,
  "\u0923": 1322,
  "spur": 12996,
  "##lier": 14355,
  "effort": 3947,
  "##gly": 25643,
  "##mith": 19864,
  "##ni": 3490,
  "bully": 20716,
  "##\u6709": 30399,
  "chain": 4677,
  "##\u1d35": 30029,
  "rely": 11160,
  "##deh": 25383,
  "\u98df": 1978,
  "faa": 17032,
  "##aj": 13006,
  "##$": 29615,
  "##ection": 18491,
  "notre": 10289,
  "extremely": 5186,
  "polka": 29499,
  "cured": 21391,
  "##lita": 27606,
  "footprint": 24319,
  "controllers": 21257,
  "biplane": 28686,
  "tire": 12824,
  "pakistani": 9889,
  "biologist": 21477,
  "kendrick": 25341,
  "pacing": 15732,
  "jules": 11044,
  "afb": 16909,
  "##\u02b8": 29710,
  "canal": 5033,
  "##oni": 10698,
  "arrived": 3369,
  "hilbert": 27434,
  "thwarted": 28409,
  "dismounted": 29580,
  "##phi": 21850,
  "dates": 5246,
  "pawn": 19175,
  "gazed": 11114,
  "idol": 10282,
  "name": 2171,
  "hedges": 25840,
  "##lica": 19341,
  "coinage": 25396,
  "fully": 3929,
  "regatta": 26848,
  "reaching": 4285,
  "marcia": 22548,
  "##istles": 28738,
  "ignition": 17446,
  "markus": 23030,
  "##\u548c": 30322,
  "##rat": 8609,
  "\u0e32": 1422,
  "recognise": 17614,
  "growing": 3652,
  "assisting": 13951,
  "##og": 8649,
  "abbott": 14455,
  "grille": 26192,
  "##vana": 27313,
  "vacancy": 15619,
  "dioceses": 26586,
  "##ister": 12911,
  "##lated": 13776,
  "int": 20014,
  "##sling": 28886,
  "languages": 4155,
  "fray": 25975,
  "phyllis": 20328,
  "any": 2151,
  "melancholy": 22247,
  "grimly": 22561,
  "##plin": 28296,
  "sanctions": 17147,
  "295": 21679,
  "else": 2842,
  "small": 2235,
  "heightened": 21106,
  "facilities": 4128,
  "##comb": 18274,
  "stumbled": 9845,
  "anatolia": 23747,
  "##cture": 14890,
  "freaking": 13847,
  "##hesive": 21579,
  "irvine": 16272,
  "##\u30a8": 30224,
  "plastic": 6081,
  "leaped": 16900,
  "logged": 26618,
  "[unused699]": 704,
  "precedence": 23359,
  "comrade": 27661,
  "##fp": 22540,
  "textile": 12437,
  "##\u30fc": 30265,
  "goalscorer": 28602,
  "messiah": 22112,
  "company": 2194,
  "[unused20]": 21,
  "inspiration": 7780,
  "[unused547]": 552,
  "##enas": 26474,
  "walked": 2939,
  "extends": 8908,
  "electrical": 5992,
  "strictly": 9975,
  "psychotic": 27756,
  "tree": 3392,
  "\u535a": 1786,
  "shoe": 10818,
  "gallo": 25624,
  "departing": 15971,
  "receiver": 8393,
  "##ili": 18622,
  "\u85e4": 1944,
  "quartermaster": 24688,
  "melt": 14899,
  "fiber": 11917,
  "##lla": 4571,
  "[unused900]": 905,
  "coordinates": 12093,
  "##uity": 18518,
  "scripted": 22892,
  "hair": 2606,
  "##ios": 10735,
  "debated": 15268,
  "maple": 11035,
  "##igo": 14031,
  "et": 3802,
  "webber": 19861,
  "temperatures": 7715,
  "\u590f": 1808,
  "##mined": 25089,
  "kosovo": 11491,
  "necks": 26082,
  "yells": 22114,
  "700": 6352,
  "culinary": 20560,
  "1937": 4347,
  "grazed": 26627,
  "tattoos": 18395,
  "loyal": 8884,
  "slips": 17433,
  "noticeably": 25327,
  "\u3057": 1657,
  "marius": 20032,
  "wear": 4929,
  "##omba": 24991,
  "[unused698]": 703,
  "vista": 13005,
  "##lithic": 28508,
  "dashboard": 24923,
  "arrangements": 7565,
  "##valent": 24879,
  "##ml": 19968,
  "##re": 2890,
  "translation": 5449,
  "proctor": 28770,
  "literature": 3906,
  "[unused979]": 984,
  "capabilities": 9859,
  "[unused223]": 228,
  "##oso": 19137,
  "##dl": 19422,
  "selecting": 17739,
  "trophies": 22236,
  "steele": 12872,
  "slits": 29199,
  "train": 3345,
  "##bilis": 27965,
  "divide": 11443,
  "akron": 22735,
  "location": 3295,
  "liechtenstein": 26500,
  "vijay": 17027,
  "##wn": 7962,
  "acre": 7456,
  "jasper": 14791,
  "safely": 9689,
  "spines": 20352,
  "stealth": 22150,
  "tractor": 16358,
  "embankment": 22756,
  "composure": 23619,
  "knotted": 27039,
  "##ners": 16912,
  "\u30e9": 1731,
  "honey": 6861,
  "[unused827]": 832,
  "gracie": 19005,
  "dollars": 6363,
  "stimulate": 23216,
  "pity": 12063,
  "gross": 7977,
  "restriction": 16840,
  "##hir": 11961,
  "initiative": 6349,
  "statements": 8635,
  "workers": 3667,
  "##iu": 17922,
  "sg": 22214,
  "emptied": 21764,
  "mistress": 10414,
  "aarhus": 29173,
  "camden": 13267,
  "peasants": 13193,
  "thanksgiving": 15060,
  "[unused164]": 169,
  "kyiv": 25669,
  "spraying": 29035,
  "##ied": 6340,
  "caused": 3303,
  "aerospace": 13395,
  "august": 2257,
  "sage": 10878,
  "##uga": 16377,
  "crashes": 19119,
  "creek": 3636,
  "franklin": 5951,
  "marilyn": 14749,
  "gia": 27699,
  "pv": 26189,
  "kato": 27496,
  "bryce": 19757,
  "compass": 16681,
  "properties": 5144,
  "sandy": 7525,
  "##ometer": 18721,
  "disgusting": 19424,
  "soloists": 27516,
  "folly": 26272,
  "weathered": 28445,
  "voters": 7206,
  "##\u1d47": 30033,
  "shoot": 5607,
  "kaladin": 22588,
  "subtly": 28797,
  "aeronautics": 27459,
  "analogue": 21800,
  "that": 2008,
  "##ttering": 19567,
  "trailers": 21389,
  "isa": 18061,
  "whispers": 11054,
  "suppression": 16341,
  "wraps": 19735,
  "veterinary": 15651,
  "gotham": 22814,
  "illuminating": 27816,
  "plastics": 26166,
  "##away": 9497,
  "mused": 22335,
  "##\u045b": 29764,
  "charging": 13003,
  "##imum": 28591,
  "steelers": 15280,
  "kc": 21117,
  "defence": 4721,
  "flutter": 23638,
  "pisa": 25472,
  "##mp": 8737,
  "hardest": 18263,
  "##\u6238": 30383,
  "pretty": 3492,
  "19th": 3708,
  "##oping": 17686,
  "##48": 18139,
  "##wy": 18418,
  "informs": 15670,
  "punching": 19477,
  "davy": 23255,
  "beaux": 20290,
  "plantation": 10065,
  "comparable": 12435,
  "\u3088": 1684,
  "franks": 21310,
  "##eries": 28077,
  "footballers": 27784,
  "sweden": 4701,
  "gladstone": 21765,
  "tottenham": 18127,
  "1912": 4878,
  "snap": 10245,
  "##roy": 13238,
  "imitation": 20017,
  "achievement": 6344,
  "managers": 10489,
  "##furt": 24428,
  "strands": 14119,
  "cadiz": 26342,
  "throw": 5466,
  "brigadier": 9900,
  "ware": 16283,
  "reassuring": 21093,
  "sighting": 29426,
  "##\u1111": 30004,
  "\u30a1": 1692,
  "##ord": 8551,
  "##gat": 20697,
  "##57": 28311,
  "navigator": 20532,
  "##avia": 15164,
  "1942": 3758,
  "[unused953]": 958,
  "godfather": 23834,
  "guilt": 8056,
  "compares": 22963,
  "moniker": 21937,
  "##\u1d48": 30034,
  "pasha": 14292,
  "##worthy": 13966,
  "agreed": 3530,
  "##enburg": 12059,
  "##ange": 22043,
  "cavalier": 28778,
  "\u09b7": 1375,
  "indo": 11424,
  "january": 2254,
  "keith": 6766,
  "appliances": 22449,
  "staff": 3095,
  "cape": 4880,
  "investor": 14316,
  "patient": 5776,
  "emperor": 3750,
  "oliveira": 24263,
  "protege": 28567,
  "6th": 5351,
  "ghosts": 11277,
  "fills": 17469,
  "starter": 11753,
  "##rdial": 25070,
  "confederates": 24627,
  "panzer": 16946,
  "lick": 15385,
  "doctoral": 11316,
  "heating": 10808,
  "georgie": 20280,
  "biting": 12344,
  "objections": 17304,
  "actually": 2941,
  "diana": 8805,
  "delegates": 10284,
  "##lices": 29146,
  "sally": 8836,
  "##asi": 21369,
  "intersections": 26540,
  "cop": 8872,
  "arnold": 7779,
  "redesigned": 17051,
  "##jali": 28948,
  "143": 16065,
  "##\u9f8d": 30508,
  "balanced": 12042,
  "[unused799]": 804,
  "moods": 27824,
  "[unused407]": 412,
  "rhone": 22351,
  "\u0916": 1316,
  "bulging": 27569,
  "amc": 21962,
  "cote": 17155,
  "duncan": 7343,
  "##lz": 23858,
  "impressive": 8052,
  "dartmouth": 16960,
  "novi": 21574,
  "tuition": 15413,
  "alsace": 24922,
  "##\u03ba": 29726,
  "##llar": 17305,
  "choice": 3601,
  "attackers": 17857,
  "##lam": 10278,
  "haul": 14655,
  "biographical": 16747,
  "biking": 28899,
  "transformations": 21865,
  "intervened": 21116,
  "transforming": 17903,
  "##werk": 29548,
  "[unused902]": 907,
  "reserved": 9235,
  "resembled": 15881,
  "helicopter": 7739,
  "##ification": 9031,
  "angular": 16108,
  "emitted": 22627,
  "bei": 21388,
  "17": 2459,
  "affairs": 3821,
  "\u0447": 1202,
  "rows": 10281,
  "[unused200]": 205,
  "tko": 26537,
  "##cating": 18252,
  "microphone": 15545,
  "148": 16459,
  "raju": 25098,
  "paradox": 20506,
  "[unused957]": 962,
  "cliff": 7656,
  "supplied": 8127,
  "keller": 16155,
  "[unused515]": 520,
  "1630": 24994,
  "symmetrical": 23476,
  "##\u8449": 30469,
  "script": 5896,
  "rational": 11581,
  "ancient": 3418,
  "cuba": 7394,
  "tighter": 12347,
  "\u026a": 1119,
  "##v": 2615,
  "caleb": 10185,
  "flyers": 16217,
  "##hc": 16257,
  "bosses": 23029,
  "statute": 11671,
  "norwich": 12634,
  "puppets": 26101,
  "[unused174]": 179,
  "consist": 8676,
  "replacements": 23936,
  "##urs": 9236,
  "styx": 21856,
  "scramble": 25740,
  "##\u09b9": 29913,
  "##\u30de": 30249,
  "slug": 23667,
  "modelling": 19518,
  "si": 9033,
  "assent": 27195,
  "later": 2101,
  "##dder": 20791,
  "alleged": 6884,
  "gamble": 18503,
  "catherine": 6615,
  "hines": 25445,
  "##chon": 24561,
  "restroom": 28249,
  "fascination": 18987,
  "polk": 20819,
  "##lu": 7630,
  "tarzan": 24566,
  "##eng": 13159,
  "city": 2103,
  "signal": 4742,
  "posed": 13686,
  "understand": 3305,
  "##ake": 13808,
  "consultative": 28581,
  "[unused560]": 565,
  "storylines": 22628,
  "##tained": 28055,
  "giants": 7230,
  "piccolo": 29368,
  "colleges": 6667,
  "visitation": 28877,
  "##ntine": 26730,
  "moss": 10636,
  "allies": 6956,
  "benedictine": 21139,
  "regarding": 4953,
  "adventures": 7357,
  "toll": 9565,
  "swallowing": 18468,
  "[unused98]": 99,
  "##cky": 17413,
  "gabon": 23129,
  "rios": 25836,
  "##\u6b63": 30414,
  "65": 3515,
  "zebra": 29145,
  "hayes": 10192,
  "supporter": 10129,
  "##claim": 25154,
  "stadion": 20756,
  "##rgan": 16998,
  "460": 17267,
  "activity": 4023,
  "inspectors": 28421,
  "chant": 16883,
  "##vo": 6767,
  "##wark": 24298,
  "##iens": 24836,
  "noah": 7240,
  "[unused357]": 362,
  "##ations": 10708,
  "harley": 13653,
  "warm": 4010,
  "condoms": 29094,
  "waved": 7147,
  "seventeen": 9171,
  "415": 24690,
  "este": 28517,
  "##block": 23467,
  "shredded": 29022,
  "dining": 7759,
  "soldier": 5268,
  "sheffield": 8533,
  "##bles": 13510,
  "[unused886]": 891,
  "fences": 21549,
  "##eta": 12928,
  "wilton": 26407,
  "realising": 27504,
  "1850": 7973,
  "hodgson": 26107,
  "bayou": 24818,
  "dyer": 23494,
  "##lide": 24198,
  "flowers": 4870,
  "##\u00b4": 29658,
  "\u30e1": 1726,
  "1713": 27016,
  "##iva": 11444,
  "carol": 8594,
  "metz": 24424,
  "motorway": 13119,
  "browns": 13240,
  "copa": 10613,
  "dolphin": 17801,
  "##nage": 27031,
  "contains": 3397,
  "gallons": 18501,
  "liverpool": 6220,
  "tainted": 26392,
  "washington": 2899,
  "##gic": 12863,
  "county": 2221,
  "##64": 21084,
  "riding": 5559,
  "##icles": 20921,
  "throttle": 24420,
  "longitude": 20413,
  "closes": 14572,
  "##ly": 2135,
  "vocal": 5554,
  "##ghi": 28891,
  "attended": 3230,
  "##bant": 29604,
  "henson": 27227,
  "##\u06af": 29842,
  "336": 27954,
  "313": 22997,
  "entering": 5738,
  "assemble": 21365,
  "explaining": 9990,
  "indonesia": 6239,
  "##sso": 24137,
  "##fan": 15143,
  "gentry": 20262,
  "##bee": 11306,
  "selfish": 14337,
  "scorer": 10835,
  "##pore": 26691,
  "[unused455]": 460,
  "flared": 14937,
  "mixing": 6809,
  "conscription": 26329,
  "clement": 12223,
  "richardson": 9482,
  "##\u02e2": 29717,
  "illustrations": 11249,
  "goodman": 14514,
  "grandmaster": 27101,
  "pour": 10364,
  "repetitive": 23563,
  "liturgy": 21176,
  "bahia": 22474,
  "amore": 26297,
  "##sphere": 23874,
  "cameroon": 13841,
  "1989": 2960,
  "flashlight": 15257,
  "quarterback": 9074,
  "charity": 5952,
  "##nga": 13807,
  "editor": 3559,
  "tam": 17214,
  "dowager": 20508,
  "64": 4185,
  "rouse": 27384,
  "clyde": 12085,
  "insurgency": 23939,
  "##break": 23890,
  "locality": 10246,
  "intensive": 11806,
  "tentative": 19943,
  "jaws": 16113,
  "speakers": 7492,
  "joy": 6569,
  "nt": 23961,
  "nine": 3157,
  "##rned": 21119,
  "spokesman": 14056,
  "##ez": 9351,
  "dolly": 19958,
  "knitting": 26098,
  "38th": 22051,
  "737": 22061,
  "\u2261": 1607,
  "recovery": 7233,
  "spice": 17688,
  "spitfire": 28323,
  "##\u0646": 15915,
  "singular": 13048,
  "##cave": 27454,
  "##elles": 22869,
  "eliot": 16292,
  "buyer": 17634,
  "winger": 16072,
  "[unused712]": 717,
  "coulter": 28293,
  "domenico": 18638,
  "[unused347]": 352,
  "lorraine": 13895,
  "##ouring": 27897,
  "clinch": 29119,
  "recruits": 15024,
  "guerre": 24613,
  "remarks": 12629,
  "b1": 29491,
  "\u304d": 1652,
  "parachute": 13561,
  "mao": 15158,
  "accuracy": 10640,
  "licence": 11172,
  "##ingly": 15787,
  "cutting": 6276,
  "zurich": 10204,
  "sleeper": 24372,
  "lighthouse": 10171,
  "veto": 22102,
  "##ped": 5669,
  "##pop": 16340,
  "filmmaker": 12127,
  "packaging": 14793,
  "##rose": 13278,
  "[unused635]": 640,
  "##emia": 17577,
  "jam": 9389,
  "sachs": 22818,
  "quinn": 8804,
  "dressed": 5102,
  "##dner": 28001,
  "adjustments": 24081,
  "tx": 19067,
  "wrought": 18481,
  "[unused816]": 821,
  "riley": 7546,
  "exercising": 28428,
  "nolan": 13401,
  "wielding": 26974,
  "##yah": 17560,
  "sixth": 4369,
  "##0s": 16223,
  "\u6709": 1873,
  "gunners": 29000,
  "##camp": 26468,
  "crawled": 12425,
  "heath": 9895,
  "tubes": 10868,
  "revue": 17480,
  "vital": 8995,
  "\u043a": 1189,
  "account": 4070,
  "##girl": 15239,
  "marsh": 9409,
  "hugely": 27564,
  "194": 19955,
  "religious": 3412,
  "advisors": 18934,
  "governed": 9950,
  "awful": 9643,
  "fear": 3571,
  "baccalaureate": 27802,
  "chimneys": 28885,
  "animation": 7284,
  "offered": 3253,
  "takes": 3138,
  "colonies": 8355,
  "snorted": 15235,
  "##idge": 13623,
  "tubular": 25147,
  "equality": 9945,
  "ok": 7929,
  "house": 2160,
  "anime": 8750,
  "aura": 15240,
  "archaeology": 12009,
  "groundbreaking": 23222,
  "##co": 3597,
  "\u56fd": 1799,
  "incarnation": 15715,
  "##20": 11387,
  "##\u0926": 29861,
  "astronauts": 25881,
  "##\u53f8": 30317,
  "##?": 29632,
  "arboretum": 25197,
  "inmate": 24467,
  "criterion": 19229,
  "blinds": 28279,
  "lineage": 13321,
  "proteins": 8171,
  "ak": 17712,
  "handcuffs": 28338,
  "##skie": 23955,
  "carpenter": 10533,
  "armored": 10612,
  "conducts": 17976,
  "vanishing": 24866,
  "hackett": 28630,
  "##amy": 24079,
  "sprawled": 21212,
  "not": 2025,
  "studies": 2913,
  "blackness": 19573,
  "ii": 2462,
  "goodness": 15003,
  "painter": 5276,
  "lin": 11409,
  "experimentation": 21470,
  "wondered": 4999,
  "some": 2070,
  "secondly": 16378,
  "inputs": 20407,
  "page": 3931,
  "murmur": 20227,
  "corn": 9781,
  "crambidae": 21585,
  "erratic": 24122,
  "rr": 25269,
  "introduce": 8970,
  "ineligible": 22023,
  "##cence": 29320,
  "canary": 17154,
  "involuntary": 26097,
  "##rise": 29346,
  "##abi": 28518,
  "subsequently": 3525,
  "##vis": 11365,
  "shiny": 12538,
  "marrow": 24960,
  "spaced": 19835,
  "[unused117]": 122,
  "gotten": 5407,
  "employing": 15440,
  "##yu": 10513,
  "\u1109": 1461,
  "harp": 14601,
  "availability": 11343,
  "\u0f0d": 1425,
  "yucatan": 28631,
  "decorated": 7429,
  "pine": 7222,
  "macintosh": 22228,
  "blaze": 15347,
  "sutra": 26567,
  "##hesion": 21471,
  "simon": 4079,
  "poets": 9736,
  "like": 2066,
  "\u2091": 1561,
  "750": 9683,
  "imprisoned": 8580,
  "posthumous": 19086,
  "\u305f": 1661,
  "bass": 3321,
  "coyote": 20457,
  "breach": 12510,
  "130": 7558,
  "##gh": 5603,
  "##dies": 18389,
  "##eborg": 27614,
  "absorb": 16888,
  "abdul": 10298,
  "rachel": 5586,
  "southend": 26104,
  "oriented": 8048,
  "stop": 2644,
  "##hey": 14844,
  "plaintiffs": 23953,
  "musik": 28076,
  "wisconsin": 5273,
  "rhode": 9763,
  "\u0632": 1281,
  "holt": 12621,
  "unique": 4310,
  "financial": 3361,
  "recommendations": 11433,
  "1638": 27497,
  "pneumonia": 18583,
  "newport": 9464,
  "colon": 16844,
  "wil": 19863,
  "lure": 17256,
  "garnered": 13056,
  "[unused568]": 573,
  "liberals": 13350,
  "\u30ab": 1700,
  "extensive": 4866,
  "prevailed": 19914,
  "gymnasium": 11288,
  "fx": 23292,
  "supervise": 28589,
  "##lled": 11001,
  "cliffs": 13333,
  "##hend": 22342,
  "\u0640": 1290,
  "flag": 5210,
  "drawers": 22497,
  "vantage": 27274,
  "##graphy": 12565,
  "##ser": 8043,
  "acquaintance": 18363,
  "##raus": 25965,
  "planner": 24555,
  "##nted": 14706,
  "fidelity": 22625,
  "##ce": 3401,
  "nanny": 19174,
  "1964": 3546,
  "occurs": 5158,
  "compatible": 11892,
  "crucial": 10232,
  "op": 6728,
  "##tees": 28313,
  "##cera": 19357,
  "scalp": 21065,
  "44th": 26409,
  "renegade": 28463,
  "##plify": 28250,
  "##mable": 24088,
  "[unused380]": 385,
  "auditory": 28042,
  "doubted": 12979,
  "efficiency": 8122,
  "slovak": 12747,
  "basin": 6403,
  "##unes": 26639,
  "officially": 3985,
  "##wan": 7447,
  "vertical": 7471,
  "freak": 11576,
  "298": 27240,
  "abrams": 23063,
  "##lok": 29027,
  "reader": 8068,
  "honestly": 9826,
  "decorate": 29460,
  "excitement": 8277,
  "j": 1046,
  "\u1d64": 1509,
  "[unused425]": 430,
  "cooperation": 6792,
  "comrades": 19033,
  "oslo": 9977,
  "exploring": 11131,
  "authorization": 20104,
  "roe": 20944,
  "dans": 18033,
  "golf": 5439,
  "##ding": 4667,
  "hereford": 21136,
  "diego": 5277,
  "swansea": 16085,
  "##ney": 5420,
  "##\u093f": 29877,
  "codex": 15763,
  "revenge": 7195,
  "ditch": 14033,
  "inter": 6970,
  "falcons": 14929,
  "deck": 5877,
  "remote": 6556,
  "checkpoint": 26520,
  "yet": 2664,
  "##lp": 14277,
  "stalin": 13125,
  "initially": 3322,
  "tequila": 26791,
  "##oh": 11631,
  "##bered": 22408,
  "method": 4118,
  "swim": 9880,
  "swindon": 22350,
  "scooped": 20804,
  "possibilities": 12020,
  "vaulted": 24616,
  "##elman": 23830,
  "[unused166]": 171,
  "carnival": 11485,
  "##rate": 11657,
  "separation": 8745,
  "##monium": 26387,
  "eighteenth": 12965,
  "counsel": 9517,
  "cod": 19429,
  "edinburgh": 5928,
  "upbringing": 24615,
  "[unused977]": 982,
  "\u0456": 1213,
  "motives": 17108,
  "poke": 26202,
  "candy": 9485,
  "publicized": 24928,
  "jameson": 22324,
  "\u5357": 1785,
  "blurred": 18449,
  "institutional": 12148,
  "##cast": 10526,
  "radicals": 23618,
  "oyster": 21480,
  "cardiovascular": 22935,
  "mp": 6131,
  "analyses": 16478,
  "cambodia": 12899,
  "commanded": 6311,
  "feed": 5438,
  "centers": 6401,
  "gazing": 16448,
  "debate": 5981,
  "##tial": 20925,
  "stopped": 3030,
  "\u043d": 1192,
  "full": 2440,
  "occasional": 8138,
  "##\u306e": 30197,
  "headlined": 25214,
  "retailer": 20196,
  "##nally": 26827,
  "\u8a01": 1949,
  "##inen": 21820,
  "above": 2682,
  "expected": 3517,
  "spencer": 7084,
  "cavity": 17790,
  "table": 2795,
  "##\u5c0f": 30355,
  "preferring": 21393,
  "##hing": 12053,
  "taps": 25316,
  "rotor": 18929,
  "##screen": 18182,
  "newborn": 20662,
  "\u0924": 1323,
  "##ye": 6672,
  "##kar": 6673,
  "buren": 29470,
  "[unused501]": 506,
  "bureaucracy": 25934,
  "glazed": 19724,
  "skinner": 17451,
  "##\u0e15": 29947,
  "fund": 4636,
  "wainwright": 25305,
  "cairo": 11096,
  "chorus": 7165,
  "dundee": 14252,
  "grind": 23088,
  "simplest": 21304,
  "hz": 22100,
  "##osaurus": 25767,
  "leinster": 15684,
  "adrenaline": 14963,
  "detection": 10788,
  "basket": 10810,
  "nordic": 13649,
  "baghdad": 13952,
  "apron": 20376,
  "playable": 16854,
  "simultaneously": 7453,
  "helpful": 14044,
  "counting": 10320,
  "##hly": 27732,
  "astronomer": 15211,
  "jacobs": 12988,
  "handled": 8971,
  "##ization": 3989,
  "##ucci": 16835,
  "hangar": 18284,
  "hoc": 21929,
  "cove": 11821,
  "sturdy": 23073,
  "governorate": 15162,
  "protesters": 13337,
  "le": 3393,
  "##raphic": 20721,
  "##cut": 12690,
  "reportedly": 7283,
  "##fide": 20740,
  "\u30d2": 1719,
  "\u27e9": 1630,
  "##fting": 26169,
  "63": 6191,
  "##\u092d": 29866,
  "##\u0254": 29679,
  "cello": 10145,
  "dvds": 22477,
  "##eke": 23941,
  "45": 3429,
  "bk": 23923,
  "##koto": 24886,
  "enjoys": 15646,
  "##routed": 25849,
  "\u0283": 1130,
  "partners": 5826,
  "interests": 5426,
  "##post": 19894,
  "gabriel": 6127,
  "zambia": 15633,
  "armand": 20371,
  "babylonian": 26990,
  "bows": 21207,
  "blanco": 20036,
  "1775": 14276,
  "teachings": 12209,
  "only": 2069,
  "reykjavik": 28559,
  "diving": 9404,
  "##\u3068": 30192,
  "but": 2021,
  "appropriately": 23263,
  "process": 2832,
  "joachim": 17286,
  "squeezing": 15328,
  "\u00a4": 1070,
  "plunge": 25912,
  "camille": 16675,
  "interruption": 24191,
  "reliance": 17975,
  "archers": 23118,
  "outlook": 17680,
  "an": 2019,
  "##rcus": 29006,
  "turbines": 17396,
  "hard": 2524,
  "preserve": 7969,
  "rover": 13631,
  "usher": 20774,
  "##ked": 8126,
  "chargers": 18649,
  "schoolhouse": 26301,
  "buick": 28865,
  "##fu": 11263,
  "wrenched": 26971,
  "prepare": 7374,
  "crap": 10231,
  "edison": 17046,
  "\u2098": 1567,
  "reassured": 26350,
  "steak": 21475,
  "set": 2275,
  "unspoken": 25982,
  "##ides": 8621,
  "##bery": 22509,
  "modernism": 27254,
  "neil": 6606,
  "##ption": 16790,
  "galaxy": 9088,
  "##\u4ee3": 30286,
  "##offs": 27475,
  "despite": 2750,
  "lucille": 28016,
  "##\u1161": 30006,
  "defeats": 14222,
  "incorporate": 13265,
  "el": 3449,
  "##\u00ba": 29662,
  "vito": 25550,
  "##nz": 14191,
  "##100": 18613,
  "nw": 22064,
  "\u9762": 1976,
  "\u5c1a": 1830,
  "gasoline": 13753,
  "harvey": 7702,
  "[unused30]": 31,
  "weaving": 15360,
  "suffer": 9015,
  "catcher": 13795,
  "##gan": 5289,
  "russian": 2845,
  "release": 2713,
  "copy": 6100,
  "\u1102": 1456,
  "##stems": 29189,
  "met": 2777,
  "cells": 4442,
  "import": 12324,
  "ornate": 18099,
  "gravely": 28070,
  "welch": 17939,
  "correctional": 20873,
  "croft": 28983,
  "work": 2147,
  "props": 24387,
  "[unused714]": 719,
  "blessed": 10190,
  "franchise": 6329,
  "heroes": 7348,
  "##thic": 23048,
  "cornice": 27848,
  "##\u5948": 30340,
  "##itt": 12474,
  "during": 2076,
  "1911": 5184,
  "bertram": 27515,
  "comes": 3310,
  "rebuild": 14591,
  "sabbath": 19546,
  "275": 17528,
  "mariana": 22097,
  "mccormick": 23213,
  "##rah": 10404,
  "celebrate": 8439,
  "governors": 11141,
  "##osta": 28696,
  "##ucible": 21104,
  "##stown": 13731,
  "\u308b": 1687,
  "\u20a9": 1573,
  "electrified": 18042,
  "sweaty": 19889,
  "whore": 17219,
  "[unused23]": 24,
  "seaside": 20276,
  "bait": 17395,
  "thud": 20605,
  "commodities": 21955,
  "##set": 13462,
  "topics": 7832,
  "continuously": 10843,
  "monitored": 17785,
  "injury": 4544,
  "rotting": 22005,
  "##mack": 26945,
  "##rle": 20927,
  "harper": 8500,
  "\u4fe1": 1767,
  "nik": 23205,
  "lauderdale": 23520,
  "dynamic": 8790,
  "resented": 27188,
  "##isson": 24077,
  "overcome": 9462,
  "detachments": 29568,
  "accounting": 9529,
  "repeat": 9377,
  "snort": 26759,
  "siding": 17326,
  "shutter": 28180,
  "##\u667a": 30395,
  "mania": 29310,
  "##van": 6212,
  "peacefully": 21614,
  "##eson": 21421,
  "[unused913]": 918,
  "nonsense": 14652,
  "##uso": 26658,
  "brat": 28557,
  "dilemma": 21883,
  "##\u306f": 30198,
  "whipped": 12428,
  "sculpted": 19921,
  "##forth": 15628,
  "mahmud": 25886,
  "##bs": 5910,
  "comments": 7928,
  "ceremony": 5103,
  "howling": 22298,
  "[unused763]": 768,
  "downtown": 5116,
  "tracy": 10555,
  "owned": 3079,
  "175": 12862,
  "moses": 9952,
  "arresting": 28427,
  "skills": 4813,
  "spies": 16794,
  "airplanes": 24042,
  "hunt": 5690,
  "kangaroo": 21652,
  "executives": 12706,
  "##pants": 27578,
  "philanthropy": 29291,
  "##note": 22074,
  "eighth": 5964,
  "gibraltar": 12272,
  "##\u8c9d": 30478,
  "ned": 12311,
  "heat": 3684,
  "chateau": 11874,
  "##ginal": 24965,
  "irresistible": 27149,
  "91": 6205,
  "quasi": 17982,
  "bestseller": 24304,
  "##copic": 26461,
  "essex": 8862,
  "puppy": 17022,
  "receptions": 16466,
  "abraham": 8181,
  "undercover": 16382,
  "##ifying": 11787,
  "\u00a31": 14534,
  "coke": 14492,
  "antrim": 24142,
  "y": 1061,
  "##fk": 24316,
  "bridges": 7346,
  "favor": 5684,
  "striped": 17983,
  "galleries": 11726,
  "benin": 21164,
  "baritone": 14458,
  "futile": 24495,
  "even": 2130,
  "\u624c": 1859,
  "churchill": 10888,
  "atmosphere": 7224,
  "dubious": 22917,
  "proved": 4928,
  "terraces": 25633,
  "[unused156]": 161,
  "\u1d62": 1507,
  "bikini": 20345,
  "defines": 11859,
  "porto": 13809,
  "apartheid": 17862,
  "##imi": 27605,
  "##physics": 15638,
  "mad": 5506,
  "giggle": 17565,
  "##nged": 21558,
  "##\u308b": 30213,
  "clinched": 18311,
  "conservative": 4603,
  "relinquished": 26566,
  "marks": 6017,
  "dry": 4318,
  "##bound": 15494,
  "danced": 10948,
  "basalt": 26343,
  "titanic": 20753,
  "courageous": 26103,
  "poppy": 19745,
  "juliet": 13707,
  "diminished": 15911,
  "beds": 9705,
  "##\u20a9": 30101,
  "sabre": 22002,
  "prince": 3159,
  "filed": 6406,
  "cyprus": 9719,
  "gardener": 19785,
  "mythical": 19336,
  "lonely": 9479,
  "parades": 26635,
  "\u4e0a": 1742,
  "insisting": 22604,
  "pointless": 23100,
  "##bach": 7693,
  "minutes": 2781,
  "103": 9800,
  "failed": 3478,
  "feeding": 8521,
  "##imated": 20592,
  "1000": 6694,
  "1898": 6068,
  "1634": 28502,
  "semi": 4100,
  "explores": 15102,
  "##nden": 25915,
  "denote": 19090,
  "beads": 17530,
  "bruno": 10391,
  "kazan": 22001,
  "316": 23980,
  "pointer": 20884,
  "hollywood": 5365,
  "[unused804]": 809,
  "leon": 6506,
  "algorithms": 13792,
  "cross": 2892,
  "am": 2572,
  "\u057a": 1233,
  "religions": 11822,
  "dies": 8289,
  "##pkins": 29531,
  "economical": 21791,
  "[unused671]": 676,
  "leaf": 7053,
  "nadia": 14942,
  "rue": 13413,
  "assists": 8456,
  "camel": 19130,
  "##ely": 26006,
  "demonstrations": 13616,
  "km": 2463,
  "weekend": 5353,
  "brightness": 18295,
  "birth": 4182,
  "dazed": 19720,
  "pilots": 8221,
  "##\u026f": 29688,
  "##\u6cbb": 30426,
  "theodore": 10117,
  "journal": 3485,
  "embassy": 8408,
  "iced": 28248,
  "##uil": 19231,
  "aye": 13442,
  "##lda": 15150,
  "kevin": 4901,
  "##ava": 12462,
  "\u8449": 1943,
  "chickens": 21868,
  "candles": 14006,
  "olympia": 17096,
  "mexican": 4916,
  "[unused16]": 17,
  "amended": 13266,
  "foliage": 19624,
  "##eley": 22352,
  "allison": 10786,
  "1892": 6527,
  "wastewater": 28269,
  "pair": 3940,
  "stiff": 10551,
  "amour": 21518,
  "waterway": 23668,
  "mammalian": 26524,
  "##ene": 8625,
  "wanderers": 14237,
  "stemmed": 27674,
  "boeing": 10321,
  "cara": 14418,
  "bosnian": 16163,
  "gems": 20296,
  "##ayan": 25868,
  "##\u00b6": 29660,
  "c2": 29248,
  "crank": 27987,
  "##flict": 29301,
  "##vili": 21661,
  "5th": 4833,
  "investigate": 8556,
  "resolve": 10663,
  "kepler": 28219,
  "gen": 8991,
  "coiled": 24599,
  "purely": 11850,
  "architect": 4944,
  "##fi": 8873,
  "firth": 25138,
  "dq": 25410,
  "coloring": 22276,
  "delivery": 6959,
  "fledgling": 25954,
  "tanner": 12780,
  "cannes": 14775,
  "yoon": 24863,
  "coding": 16861,
  "fey": 23864,
  "go": 2175,
  "peanuts": 27613,
  "warming": 12959,
  "comedy": 4038,
  "decrease": 9885,
  "survey": 5002,
  "professor": 2934,
  "vic": 10967,
  "##fighting": 22158,
  "7th": 5504,
  "disk": 9785,
  "within": 2306,
  "1702": 26776,
  "frontier": 8880,
  "washing": 12699,
  "##ducted": 29510,
  "##pack": 23947,
  "espn": 10978,
  "craven": 21232,
  "easton": 21636,
  "kirk": 11332,
  "##26": 23833,
  "##gon": 7446,
  "##rt": 5339,
  "horace": 12757,
  "##ipes": 28108,
  "##ray": 9447,
  "fluttered": 18360,
  "##\u03c3": 29733,
  "##sop": 28793,
  "icc": 16461,
  "##ks": 5705,
  "causing": 4786,
  "willard": 19138,
  "meeting": 3116,
  "\u6d77": 1902,
  "244": 24194,
  "sensory": 16792,
  "##\u00bc": 29664,
  "rescued": 10148,
  "sue": 9790,
  "demonic": 23170,
  "cone": 13171,
  "discrimination": 9147,
  "trooper": 28224,
  "losers": 23160,
  "recognizable": 20123,
  "households": 3911,
  "##hm": 14227,
  "inquisition": 24638,
  "pays": 12778,
  "cartoonist": 19659,
  "inch": 4960,
  "sausage": 24165,
  "##\u7701": 30446,
  "hissing": 26386,
  "brendan": 15039,
  "exasperated": 24379,
  "playful": 18378,
  "##\u0638": 29829,
  "sims": 18135,
  "bertrand": 20586,
  "lucifer": 24184,
  "beaches": 12212,
  "fireworks": 16080,
  "marek": 29318,
  "[unused895]": 900,
  "##stream": 21422,
  "traveller": 21916,
  "\u5bfa": 1827,
  "airfield": 9087,
  "reservations": 17829,
  "variable": 8023,
  "den": 7939,
  "churches": 5231,
  "##ances": 26755,
  "rocker": 24779,
  "rules": 3513,
  "acknowledging": 21894,
  "wing": 3358,
  "concurrently": 15442,
  "drummond": 19266,
  "think": 2228,
  "norway": 5120,
  "##jack": 17364,
  "##ge": 3351,
  "terrible": 6659,
  "retired": 3394,
  "myles": 27056,
  "[unused839]": 844,
  "##wire": 20357,
  "enterprises": 9926,
  "dove": 10855,
  "contributions": 5857,
  "corbett": 24119,
  "greyish": 26916,
  "##erre": 28849,
  "martinez": 10337,
  "airfields": 25278,
  "55": 4583,
  "designation": 8259,
  "abdominal": 21419,
  "\u611b": 1853,
  "knives": 13227,
  "##lr": 20974,
  "observations": 9420,
  "apologetic": 29352,
  "unix": 19998,
  "reunification": 28044,
  "gaines": 28645,
  "crimson": 11466,
  "barnsley": 25139,
  "courage": 8424,
  "shelly": 28360,
  "progressing": 27673,
  "spatial": 13589,
  "alexis": 13573,
  "hays": 29051,
  "##rl": 12190,
  "laundry": 14533,
  "nape": 23634,
  "itf": 27682,
  "##oia": 25463,
  "weakening": 22031,
  "ignacio": 22988,
  "yell": 14315,
  "ritter": 23168,
  "reorganized": 14137,
  "bishops": 8414,
  "orchestras": 19505,
  "disagreed": 18335,
  "barrington": 26469,
  "##chison": 27795,
  "prefix": 17576,
  "loops": 15932,
  "##chia": 20881,
  "sakura": 23066,
  "acton": 28794,
  "##rricular": 21231,
  "1920s": 6641,
  "rattling": 26347,
  "reno": 17738,
  "garage": 7381,
  "indirect": 14958,
  "registering": 25719,
  "herman": 11458,
  "initial": 3988,
  "flood": 7186,
  "mates": 14711,
  "prague": 8634,
  "alarms": 29034,
  "announce": 14970,
  "flux": 19251,
  "participation": 6577,
  "context": 6123,
  "grouped": 15131,
  "kamen": 22099,
  "campeonato": 17675,
  "prof": 11268,
  "share": 3745,
  "##\u30ce": 30243,
  "pockets": 10306,
  "##hawk": 17998,
  "episode": 2792,
  "##lina": 13786,
  "bingham": 24579,
  "educational": 4547,
  "headwaters": 25345,
  "##ant": 4630,
  "consumers": 10390,
  "##\u795e": 30451,
  "##rmi": 28550,
  "##\u0628\u0627\u062f": 25799,
  "unable": 4039,
  "axe": 12946,
  "masterpiece": 17743,
  "##inger": 9912,
  "##aldi": 24657,
  "incorrectly": 19721,
  "sellers": 19041,
  "alain": 15654,
  "##rgo": 18581,
  "228": 22238,
  "angus": 13682,
  "disaster": 7071,
  "[unused149]": 154,
  "combo": 25025,
  "##oked": 23461,
  "lifestyle": 9580,
  "behavior": 5248,
  "usa": 3915,
  "##idi": 28173,
  "nuremberg": 19346,
  "emerging": 8361,
  "##ving": 6455,
  "gideon": 12137,
  "sd": 17371,
  "sabah": 22515,
  "pixels": 27725,
  "##laya": 22923,
  "##nza": 16786,
  "##nator": 27413,
  "zoe": 11199,
  "ban": 7221,
  "firing": 7493,
  "wembley": 16538,
  "assignments": 14799,
  "##ropolis": 23248,
  "warships": 15964,
  "##ak": 4817,
  "lal": 21348,
  "sharp": 4629,
  "indochina": 27053,
  "advances": 9849,
  "presidency": 8798,
  "##rana": 16737,
  "plant": 3269,
  "reliefs": 27670,
  "semitic": 20604,
  "samantha": 11415,
  "##\u00a1": 29644,
  "1626": 28818,
  "colt": 9110,
  "gunnar": 26138,
  "obscured": 23649,
  "\u0906": 1312,
  "\u02b7": 1143,
  "99": 5585,
  "[unused610]": 615,
  "consulting": 10552,
  "jacksonville": 13057,
  "##rest": 28533,
  "scaled": 18953,
  "forgetting": 17693,
  "tenure": 7470,
  "\u5ddd": 1835,
  "\u09b2": 1373,
  "trapped": 7567,
  "showing": 4760,
  "avoiding": 9992,
  "ported": 27650,
  "shortages": 22623,
  "##\u0131": 11722,
  "##vac": 24887,
  "\u305d": 1660,
  "corona": 21887,
  "\u0630": 1279,
  "chancellor": 7306,
  "positioned": 10959,
  "spark": 12125,
  "nevada": 7756,
  "spending": 5938,
  "smashed": 14368,
  "katy": 17870,
  "pete": 6969,
  "dora": 21008,
  "cancer": 4456,
  "##growth": 26982,
  "##ros": 7352,
  "##onis": 27296,
  "design": 2640,
  "web": 4773,
  "wearing": 4147,
  "tackles": 10455,
  "##hart": 10686,
  "transition": 6653,
  "##\u5c07": 30354,
  "##ior": 25346,
  "arcs": 29137,
  "heartbreak": 27724,
  "posterior": 15219,
  "292": 25797,
  "reactive": 22643,
  "conceived": 10141,
  "german": 2446,
  "bmg": 24499,
  "beginning": 2927,
  "november": 2281,
  "##ulla": 22187,
  "aim": 6614,
  "##won": 19291,
  "##ppel": 27877,
  "yielding": 21336,
  "##\u0640": 29832,
  "commercially": 11088,
  "##mine": 11233,
  "##lish": 13602,
  "##itan": 25451,
  "##rit": 14778,
  "##redo": 23417,
  "##linson": 25051,
  "peg": 25039,
  "manipulating": 26242,
  "declaration": 8170,
  "paraguay": 13884,
  "bundesliga": 14250,
  "scope": 9531,
  "##phic": 17926,
  "\u2153": 1581,
  "ba": 8670,
  "philippines": 5137,
  "utopia": 26425,
  "2010s": 26817,
  "\u30c1": 1710,
  "[unused976]": 981,
  "[unused122]": 127,
  "##iac": 20469,
  "doin": 24341,
  "considered": 2641,
  "showtime": 23811,
  "summers": 10945,
  "scholar": 6288,
  "newton": 8446,
  "disciplinary": 17972,
  "construction": 2810,
  "route": 2799,
  "penultimate": 25512,
  "tripoli": 21841,
  "leaned": 4016,
  "sprawling": 24199,
  "abbreviation": 22498,
  "unearthed": 27422,
  "##da": 2850,
  "posters": 14921,
  "##psis": 18409,
  "1664": 28485,
  "enhancing": 20226,
  "roach": 20997,
  "oh": 2821,
  "##sford": 17658,
  "##gun": 12734,
  "westbound": 24717,
  "bone": 5923,
  "mn": 24098,
  "departmental": 28912,
  "molded": 27992,
  "[unused389]": 394,
  "freely": 10350,
  "##\u05dc": 29799,
  "vernacular": 18485,
  "started": 2318,
  "vest": 17447,
  "persecution": 14522,
  "twain": 24421,
  "fascism": 23779,
  "jerome": 11120,
  "jeremy": 7441,
  "[unused157]": 162,
  "earned": 3687,
  "##sl": 14540,
  "##46": 21472,
  "##erian": 27549,
  "##dry": 21190,
  "1900": 5141,
  "blinking": 15997,
  "overseen": 22485,
  "nfl": 5088,
  "##\u2085": 30081,
  "##yon": 14001,
  "anxiety": 10089,
  "##rn": 6826,
  "twenties": 18946,
  "[unused871]": 876,
  "bethel": 19375,
  "nominal": 15087,
  "teller": 21322,
  "\u6a39": 1884,
  "danube": 16212,
  "position": 2597,
  "\u8a9e": 1950,
  "gallery": 3916,
  "nightclub": 15479,
  "mccartney": 15320,
  "shout": 11245,
  "##br": 19892,
  "negligence": 27988,
  "condemnation": 26248,
  "fabrics": 25123,
  "ken": 6358,
  "##loaded": 17468,
  "##toy": 29578,
  "##cot": 24310,
  "##aurus": 17342,
  "maxim": 20446,
  "pussy": 22418,
  "burning": 5255,
  "angry": 4854,
  "goods": 5350,
  "facebook": 9130,
  "olga": 15585,
  "ninja": 14104,
  "abstraction": 24504,
  "##boats": 19468,
  "[unused832]": 837,
  "##nton": 15104,
  "##\u7248": 30433,
  "followers": 8771,
  "252": 22898,
  "##ro": 3217,
  "women": 2308,
  "##lding": 24573,
  "marketing": 5821,
  "lots": 7167,
  "pearl": 7247,
  "sweetie": 22872,
  "[unused469]": 474,
  "organizer": 19012,
  "astronomers": 26357,
  "nikita": 29106,
  "dirk": 17594,
  "sweetness": 23210,
  "calhoun": 22982,
  "affirmed": 19768,
  "gaped": 23832,
  "hollow": 8892,
  "andersen": 18308,
  "sparta": 21251,
  "pursuits": 23719,
  "dragoons": 28069,
  "solomon": 9168,
  "sub": 4942,
  "\u0bb0": 1391,
  "deputies": 11964,
  "ringo": 25589,
  "figuring": 23218,
  "collecting": 9334,
  "yiddish": 20112,
  "##\u967d": 30499,
  "harm": 7386,
  "patience": 11752,
  "eastenders": 28936,
  "faculty": 4513,
  "gender": 5907,
  "encouraged": 6628,
  "232": 20666,
  "superseded": 19886,
  "##izes": 10057,
  "##ung": 5575,
  "subsided": 26588,
  "\u6211": 1855,
  "yours": 6737,
  "herzegovina": 11453,
  "hearts": 8072,
  "pharmaceutical": 13859,
  "applicants": 17362,
  "huang": 15469,
  "##ffa": 20961,
  "##don": 5280,
  "stripe": 18247,
  "debbie": 16391,
  "12th": 5940,
  "[unused4]": 5,
  "lemon": 14380,
  "thomas": 2726,
  "epilogue": 24297,
  "slide": 7358,
  "bugs": 12883,
  "##yama": 11613,
  "1795": 13397,
  "##ads": 19303,
  "competes": 14190,
  "##tour": 21163,
  "shares": 6661,
  "\u5802": 1805,
  "economist": 11708,
  "mani": 23624,
  "inverness": 22937,
  "gloom": 24067,
  "arousal": 18905,
  "comprehensive": 7721,
  "fixed": 4964,
  "##gs": 5620,
  "radiating": 23229,
  "perfume": 17013,
  "preference": 12157,
  "up": 2039,
  "\u4ebb": 1757,
  "growled": 8881,
  "differences": 5966,
  "submissions": 27842,
  "1986": 3069,
  "##ent": 4765,
  "kiel": 20963,
  "yankee": 17652,
  "surveyor": 17169,
  "vhf": 27527,
  "slid": 4934,
  "wwf": 16779,
  "homemade": 25628,
  "pizza": 10733,
  "association": 2523,
  "apologized": 17806,
  "chromosomes": 26874,
  "suit": 4848,
  "competed": 3879,
  "\u30a3": 1694,
  "agreement": 3820,
  "indiana": 5242,
  "receiving": 4909,
  "salaries": 20566,
  "foolish": 13219,
  "rugged": 17638,
  "##30": 14142,
  "unification": 16905,
  "jared": 8334,
  "cinemas": 19039,
  "inning": 12994,
  "variance": 23284,
  "##lor": 10626,
  "punch": 8595,
  "##si": 5332,
  "accurate": 8321,
  "software": 4007,
  "sure": 2469,
  "suspected": 6878,
  "[unused222]": 227,
  "exhaled": 16242,
  "[unused454]": 459,
  "deutsche": 11605,
  "downloaded": 22817,
  "39": 4464,
  "ambiguity": 27637,
  "board": 2604,
  "modular": 19160,
  "\u0f66": 1436,
  "climatic": 27301,
  "twins": 8178,
  "linebacker": 15674,
  "##arts": 20591,
  "##\u1166": 30009,
  "##cellular": 16882,
  "##bham": 25522,
  "##\u03b7\u03c2": 29155,
  "##oides": 25064,
  "loop": 7077,
  "abuse": 6905,
  "spotted": 7282,
  "baptism": 18336,
  "computation": 22334,
  "overshadowed": 28604,
  "##po": 6873,
  "preston": 8475,
  "terminates": 28790,
  "staffed": 21121,
  "nes": 24524,
  "5": 1019,
  "##ifolia": 29244,
  "sentiments": 23541,
  "fraud": 9861,
  "lullaby": 29149,
  "drunk": 7144,
  "##evich": 16277,
  "decline": 6689,
  "architectural": 6549,
  "##ght": 13900,
  "##xi": 9048,
  "tangible": 24600,
  "##gf": 25708,
  "alberta": 7649,
  "##zone": 15975,
  "typing": 22868,
  "error": 7561,
  "##odies": 27391,
  "racing": 3868,
  "##ou": 7140,
  "owe": 12533,
  "histories": 15215,
  "titled": 4159,
  "##\u961d": 30496,
  "terror": 7404,
  "solar": 5943,
  "palmer": 8809,
  "1861": 6863,
  "[unused321]": 326,
  "##ital": 18400,
  "dwellings": 16707,
  "believer": 24591,
  "living": 2542,
  "heated": 9685,
  "beatrice": 14807,
  "##group": 17058,
  "##around": 24490,
  "##agi": 22974,
  "escorting": 23831,
  "241": 22343,
  "spaces": 7258,
  "trucks": 9322,
  "west": 2225,
  "gabby": 27183,
  "mechanism": 7337,
  "##nine": 19105,
  "star": 2732,
  "##ngen": 25997,
  "summoned": 11908,
  "scarborough": 18603,
  "say": 2360,
  "##bara": 20709,
  "##leaf": 19213,
  "honourable": 17164,
  "theory": 3399,
  "##ete": 12870,
  "rene": 10731,
  "admitting": 17927,
  "implications": 13494,
  "##gas": 12617,
  "##dav": 29045,
  "levels": 3798,
  "spence": 22186,
  "celebrates": 21566,
  "mind": 2568,
  "distal": 29333,
  "cure": 9526,
  "pitches": 19299,
  "revolves": 19223,
  "foreign": 3097,
  "landmarks": 16209,
  "holloway": 20977,
  "cheeks": 6029,
  "\u5343": 1784,
  "blazed": 25590,
  "principality": 18018,
  "beam": 7504,
  "pillars": 13766,
  "sink": 7752,
  "fertility": 17376,
  "landowners": 20152,
  "unconventional": 23693,
  "magnum": 19691,
  "bogota": 21240,
  "race": 2679,
  "pressure": 3778,
  "montagu": 26241,
  "healthcare": 9871,
  "carvings": 22838,
  "bottoms": 24196,
  "##crats": 23423,
  "vaguely": 15221,
  "driven": 5533,
  "borrowed": 11780,
  "worked": 2499,
  "##tt": 4779,
  "steaming": 19986,
  "[unused500]": 505,
  "lens": 10014,
  "regiments": 10435,
  "jerked": 8245,
  "##cliff": 27580,
  "##rwin": 27349,
  "elongated": 17876,
  "##vus": 27500,
  "freestyle": 9817,
  "guarantee": 11302,
  "accused": 5496,
  "\u05d0": 1241,
  "realistic": 12689,
  "casablanca": 24592,
  "robin": 5863,
  "fixing": 15887,
  "bid": 7226,
  "suited": 10897,
  "cent": 9358,
  "##foil": 24323,
  "[unused573]": 578,
  "play": 2377,
  "detention": 12345,
  "pennsylvania": 3552,
  "much": 2172,
  "apps": 18726,
  "louie": 17438,
  "##\u4eba": 30282,
  "depart": 18280,
  "##press": 20110,
  "prison": 3827,
  "domains": 13100,
  "failures": 15428,
  "murdered": 7129,
  "trolley": 20820,
  "admission": 9634,
  "[unused723]": 728,
  "wandered": 13289,
  "##aba": 19736,
  "ring": 3614,
  "arched": 9194,
  "\u5dff": 1837,
  "##isman": 20257,
  "##rization": 26910,
  "ferries": 20157,
  "[unused642]": 647,
  "barking": 19372,
  "1765": 20797,
  "gee": 20277,
  "australia": 2660,
  "m1": 23290,
  "clermont": 27956,
  "##\u592b": 30339,
  "##\u0928": 29863,
  "##tek": 23125,
  "rampage": 29216,
  "rents": 28206,
  "##rier": 16252,
  "damaged": 5591,
  "yellow": 3756,
  "elevator": 7764,
  "[unused81]": 82,
  "attendant": 16742,
  "arguably": 15835,
  "nixon": 11296,
  "rocking": 14934,
  "revolving": 24135,
  "1949": 4085,
  "carpet": 10135,
  "expands": 24545,
  "##ph": 8458,
  "\u0635": 1284,
  "##mian": 20924,
  "##zy": 9096,
  "\u3044": 1647,
  "spurred": 22464,
  "pottery": 11378,
  "triggers": 27099,
  "shea": 16994,
  "aspiring": 22344,
  "fiction": 4349,
  "commitment": 8426,
  "vanguard": 18332,
  "agile": 29003,
  "\u11ab": 1485,
  "intuition": 26406,
  "##\u1110": 30003,
  "gina": 17508,
  "imposed": 9770,
  "songs": 2774,
  "chorale": 26561,
  "contemporaries": 16682,
  "##\u2605": 30147,
  "sticking": 13423,
  "muir": 23110,
  "##sas": 20939,
  "\u307b": 1676,
  "issuing": 15089,
  "docking": 25776,
  "hosted": 4354,
  "eliminating": 15349,
  "parody": 12354,
  "beige": 28799,
  "[unused528]": 533,
  "isla": 25340,
  "marley": 20326,
  "complimented": 27175,
  "education": 2495,
  "hybrids": 23376,
  "tooth": 11868,
  "spectroscopy": 25458,
  "heirs": 15891,
  "##\u1165": 30008,
  "organizational": 13296,
  "blue": 2630,
  "##pathic": 25940,
  "talon": 19048,
  "##dio": 20617,
  "rebuilt": 7183,
  "systematic": 11778,
  "##yuki": 19663,
  "call": 2655,
  "viking": 12886,
  "mediterranean": 7095,
  "##bled": 23242,
  "balance": 5703,
  "\u00a3": 1069,
  "thornton": 14630,
  "imported": 10964,
  "pumping": 14107,
  "topographic": 24254,
  "campaign": 3049,
  "spp": 26924,
  "marguerite": 15334,
  "stranger": 7985,
  "##\u660e": 30391,
  "witnesses": 9390,
  "##nr": 16118,
  "grins": 20237,
  "\u0985": 1347,
  "sm": 15488,
  "##not": 17048,
  "##tler": 25091,
  "suffered": 4265,
  "angelo": 12262,
  "rhetoric": 17871,
  "topic": 8476,
  "underground": 5230,
  "suppress": 16081,
  "\u1019": 1437,
  "reapers": 27733,
  "\u0279": 1125,
  "ally": 9698,
  "##\u0459": 29762,
  "\u2ea9": 1632,
  "antibodies": 22931,
  "rushes": 18545,
  "##ward": 7652,
  "cola": 15270,
  "\u4ec1": 1758,
  "district": 2212,
  "affinity": 16730,
  "tyrone": 18770,
  "electricity": 6451,
  "\u1105": 1458,
  "reaches": 6561,
  "##\u03bc": 29728,
  "##vitt": 28656,
  "horatio": 27752,
  "barbados": 16893,
  "facades": 28708,
  "onwards": 9921,
  "adds": 9909,
  "[unused110]": 115,
  "heats": 18559,
  "##\u4e0b": 30269,
  "##rian": 6862,
  "munitions": 21061,
  "##tina": 13770,
  "cheat": 21910,
  "[unused0]": 1,
  "roommate": 18328,
  "stands": 4832,
  "update": 10651,
  "humanities": 11406,
  "raises": 13275,
  "hell": 3109,
  "##hire": 20908,
  "\u064a": 1300,
  "ju": 18414,
  "trembling": 10226,
  "\u83ef": 1942,
  "1950s": 4856,
  "laps": 10876,
  "connecting": 7176,
  "build": 3857,
  "\u05d4": 1245,
  "pride": 6620,
  "recipes": 19328,
  "\u1100": 1455,
  "##ll": 3363,
  "moan": 13673,
  "ivory": 11554,
  "shandong": 25768,
  "bolivian": 26075,
  "adolescent": 20274,
  "regent": 11315,
  "\u10d0": 1438,
  "qualifiers": 18956,
  "safer": 13726,
  "corvette": 22687,
  "brothel": 27308,
  "adjutant": 20690,
  "##\u2098": 30096,
  "apartment": 4545,
  "sonia": 16244,
  "endings": 21306,
  "perrin": 28106,
  "diplomats": 23473,
  "dolls": 14421,
  "galileo": 21514,
  "girls": 3057,
  "famed": 15607,
  "##relli": 22948,
  "declined": 6430,
  "177": 18118,
  "\u0989": 1350,
  "[unused195]": 200,
  "[unused946]": 951,
  "campo": 22339,
  "cave": 5430,
  "sounds": 4165,
  "politically": 10317,
  "iraqi": 8956,
  "smooth": 5744,
  "##34": 22022,
  "blushed": 19370,
  "!": 999,
  "##firm": 27972,
  "##ipe": 15457,
  "peabody": 20004,
  "##breaker": 21204,
  "giro": 19226,
  "##vel": 15985,
  "contained": 4838,
  "##reen": 28029,
  "robots": 13507,
  "680": 23944,
  "educator": 11490,
  "flipping": 18497,
  "deaths": 6677,
  "reiterated": 28960,
  "mortar": 14335,
  "##un": 4609,
  "domes": 26193,
  "hem": 19610,
  "46th": 27990,
  "thrilling": 26162,
  "proton": 20843,
  "##ey": 3240,
  "fright": 25966,
  "internationally": 7587,
  "frantically": 16460,
  "[unused903]": 908,
  "offense": 10048,
  "carried": 3344,
  "live": 2444,
  "hague": 14575,
  "typed": 21189,
  "onboard": 27120,
  "whispered": 3990,
  "ferry": 7115,
  "restaurant": 4825,
  "##rry": 12244,
  "##day": 10259,
  "crack": 8579,
  "synonym": 10675,
  "secretariat": 15128,
  "fuselage": 13478,
  "watson": 7908,
  "takeover": 15336,
  "grave": 6542,
  "narrowly": 11866,
  "chained": 22075,
  "carved": 7844,
  "agreements": 10540,
  "doing": 2725,
  "pressured": 25227,
  "##written": 15773,
  "discover": 7523,
  "cane": 11942,
  "##_": 29638,
  "125": 8732,
  "##\u0432": 25529,
  "phrase": 7655,
  "\u738b": 1909,
  "##ally": 3973,
  "hungarians": 24027,
  "treating": 12318,
  "birthplace": 14508,
  "narrative": 7984,
  "constructive": 26157,
  "thankfully": 16047,
  "francis": 4557,
  "edith": 13257,
  "1753": 23810,
  "mccann": 28641,
  "\u5206": 1775,
  "asshole": 22052,
  "##cu": 10841,
  "[unused747]": 752,
  "uniformly": 27423,
  "toppled": 27251,
  "##bek": 24597,
  "rahman": 14364,
  "##dog": 16168,
  "string": 5164,
  "paused": 5864,
  "bullying": 18917,
  "fiba": 13651,
  "##tic": 4588,
  "forsyth": 29434,
  "unexpectedly": 14153,
  "333": 21211,
  "memorandum": 20336,
  "##lch": 29358,
  "seeking": 6224,
  "settling": 9853,
  "yi": 12316,
  "horde": 21038,
  "##29": 24594,
  "ser": 14262,
  "miner": 18594,
  "chinatown": 22321,
  "stripped": 10040,
  "eagle": 6755,
  "licensing": 13202,
  "wind": 3612,
  "nouveau": 25272,
  "fearful": 19725,
  "munro": 20923,
  "##uf": 16093,
  "lincoln": 5367,
  "four": 2176,
  "corresponding": 7978,
  "agrees": 10217,
  "diverted": 18356,
  "oriental": 11481,
  "[unused55]": 56,
  "[unused847]": 852,
  "hostel": 21071,
  "cf": 12935,
  "profiles": 17879,
  "##\u09a5": 29899,
  "##otte": 28495,
  "56": 5179,
  "twinkle": 29038,
  "temeraire": 23611,
  "quo": 22035,
  "argue": 7475,
  "edmond": 21773,
  "##rdy": 17460,
  "excellence": 8012,
  "midway": 12213,
  "longing": 15752,
  "yeast": 21957,
  "garner": 18661,
  "[unused146]": 151,
  "communal": 15029,
  "##din": 8718,
  "directorial": 21635,
  "600": 5174,
  "##hini": 20535,
  "mat": 13523,
  "##\u0bc8": 29935,
  "##otho": 29288,
  "dreaming": 12802,
  "4000": 20143,
  "sincerity": 23997,
  "floated": 13715,
  "further": 2582,
  "##bahn": 16052,
  "[unused34]": 35,
  "alyssa": 26442,
  "aggravated": 25817,
  "beverley": 29057,
  "##\u0bbf": 29932,
  "##\u2c7c": 30157,
  "satisfied": 8510,
  "psyche": 25774,
  "\u2217": 1598,
  "tatar": 29241,
  "feasible": 22945,
  "##enham": 23580,
  "inspected": 20456,
  "devised": 14917,
  "##ories": 18909,
  "tires": 13310,
  "##iform": 22631,
  "##chers": 21844,
  "troop": 10123,
  "\u0261": 1116,
  "refused": 4188,
  "emery": 24294,
  "shells": 10986,
  "seductive": 23182,
  "lowe": 14086,
  "brazilian": 6142,
  "whipping": 23016,
  "analyzing": 20253,
  "marco": 8879,
  "##bbs": 17226,
  "pin": 9231,
  "lamp": 10437,
  "yale": 7996,
  "easy": 3733,
  "oro": 20298,
  "[unused405]": 410,
  "freed": 10650,
  "hydro": 18479,
  "nord": 13926,
  "income": 3318,
  "lasted": 6354,
  "ras": 20710,
  "see": 2156,
  "whiskey": 13803,
  "[unused702]": 707,
  "difficult": 3697,
  "papua": 13049,
  "skipped": 16791,
  "lacey": 16355,
  "##ita": 6590,
  "##efe": 27235,
  "banco": 28678,
  "##\u30fb": 30264,
  "parcel": 20463,
  "selects": 27034,
  "praying": 14488,
  "[unused165]": 170,
  "substantial": 6937,
  "example": 2742,
  "ashby": 28729,
  "##edge": 24225,
  "##\u30e7": 30256,
  "mahmoud": 27278,
  "negotiate": 13676,
  "concordia": 24982,
  "arise": 13368,
  "layer": 6741,
  "theologians": 29013,
  "##fahan": 28975,
  "##rued": 28551,
  "##han": 4819,
  "##stor": 23809,
  "slap": 14308,
  "vulnerable": 8211,
  "##nio": 27678,
  "constraint": 27142,
  "humanist": 24464,
  "contingent": 15445,
  "##woman": 10169,
  "domingo": 15586,
  "##sing": 7741,
  "fiery": 15443,
  "plate": 5127,
  "depicts": 11230,
  "audiences": 9501,
  "##bbing": 23200,
  "holes": 8198,
  "walter": 4787,
  "traveler": 20174,
  "gable": 13733,
  "armchair": 29372,
  "reflected": 7686,
  "mural": 15533,
  "requires": 5942,
  "akira": 21616,
  "sling": 27076,
  "##leen": 24129,
  "manages": 9020,
  "blooded": 26064,
  "announced": 2623,
  "375": 18034,
  "superstar": 18795,
  "cars": 3765,
  "employers": 12433,
  "winged": 14462,
  "##\u09be": 29914,
  "celtics": 23279,
  "export": 9167,
  "trademark": 11749,
  "concerns": 5936,
  "telecommunications": 12108,
  "anglo": 7819,
  "middlesex": 13654,
  "mi": 2771,
  "recoil": 27429,
  "yuan": 11237,
  "expectation": 17626,
  "observes": 24451,
  "##mic": 7712,
  "##fish": 7529,
  "liz": 9056,
  "boroughs": 21413,
  "escapes": 12976,
  "contrary": 10043,
  "directing": 9855,
  "##\u661f": 30392,
  "##table": 10880,
  "affiliate": 8727,
  "lyle": 21971,
  "1799": 13839,
  "ursula": 20449,
  "\u05e6": 1263,
  "groin": 20092,
  "##\u300f": 30170,
  "##\u02b7": 29709,
  "considers": 10592,
  "objects": 5200,
  "accomplishment": 24718,
  "blackout": 26717,
  "replicate": 28024,
  "monopoly": 15404,
  "remaining": 3588,
  "publishing": 4640,
  "custom": 7661,
  "[unused484]": 489,
  "berman": 29482,
  "disks": 23999,
  "consolidated": 10495,
  "##ilation": 29545,
  "mesa": 15797,
  "pickering": 27078,
  "interval": 13483,
  "violet": 8766,
  "maccabi": 24055,
  "##rh": 25032,
  "diesel": 7937,
  "brunette": 27261,
  "[unused240]": 245,
  "##stad": 16917,
  "[unused491]": 496,
  "challenging": 10368,
  "##ld": 6392,
  "mig": 19117,
  "##nare": 26148,
  "potent": 16834,
  "kathryn": 20484,
  "categories": 7236,
  "[unused856]": 861,
  "cardinals": 9310,
  "roxy": 23682,
  "20": 2322,
  "aside": 4998,
  "console": 10122,
  "interfering": 24324,
  "equity": 10067,
  "retained": 6025,
  "[UNK]": 100,
  "##haus": 13821,
  "layered": 21323,
  "favourite": 8837,
  "##pole": 15049,
  "georgina": 27358,
  "##west": 19650,
  "##ige": 25538,
  "constantly": 7887,
  "lucinda": 28261,
  "returning": 4192,
  "feldman": 26908,
  "had": 2018,
  "clutch": 15357,
  "pueblo": 18273,
  "syndication": 26973,
  "406": 27433,
  "crab": 18081,
  "##inia": 23309,
  "dealt": 9411,
  "reused": 26513,
  "000": 2199,
  "##\u5f8c": 30372,
  "mitchell": 6395,
  "homer": 11525,
  "##\u0290": 29702,
  "carlton": 12989,
  "yeshiva": 22142,
  "wounded": 5303,
  "tbs": 29584,
  "stall": 13498,
  "ensembles": 21528,
  "mane": 23055,
  "complaint": 12087,
  "assistant": 3353,
  "qc": 25196,
  "baba": 14208,
  "##lka": 26518,
  "##\u30ed": 30261,
  "294": 28135,
  "crossing": 5153,
  "\u6587": 1861,
  "threads": 16457,
  "ludwig": 10302,
  "refining": 28596,
  "hatred": 11150,
  "##very": 27900,
  "torpedoes": 18544,
  "volume": 3872,
  "mountains": 4020,
  "##rov": 12298,
  "fl": 13109,
  "meat": 6240,
  "grange": 18203,
  "grow": 4982,
  "\u0142odz": 17814,
  "##sto": 16033,
  "tai": 13843,
  "influences": 8092,
  "[unused100]": 105,
  "executions": 22679,
  "equally": 8053,
  "##\u30e5": 30255,
  "studied": 3273,
  "wiggled": 26750,
  "##\u05db": 29798,
  "zac": 29250,
  "louisa": 15731,
  "hubert": 15346,
  "patterns": 7060,
  "##ively": 14547,
  "thoughts": 4301,
  "tried": 2699,
  "bandits": 19088,
  "740": 25833,
  "length": 3091,
  "rick": 6174,
  "id": 8909,
  "honour": 6225,
  "est": 9765,
  "existed": 5839,
  "##fs": 10343,
  "gui": 26458,
  "[unused476]": 481,
  "warned": 7420,
  "##anu": 24076,
  "sharpened": 26694,
  "aged": 4793,
  "newspapers": 6399,
  "made": 2081,
  "hume": 20368,
  "etc": 4385,
  "dispatched": 14501,
  "resides": 11665,
  "breeders": 20823,
  "barker": 12852,
  "where": 2073,
  "##reus": 23446,
  "merely": 6414,
  "dish": 9841,
  "surviving": 6405,
  "##\u1d65": 30045,
  "##lford": 23211,
  "slipped": 5707,
  "[unused448]": 453,
  "carrie": 13223,
  "aston": 14327,
  "##rani": 21578,
  "patterson": 12424,
  "graduating": 6800,
  "maha": 24404,
  "##uer": 13094,
  "whatever": 3649,
  "modernist": 19770,
  "\u207b": 1545,
  "fallout": 23902,
  "valentine": 10113,
  "routines": 23964,
  "1849": 9037,
  "janice": 20029,
  "produces": 7137,
  "lizard": 15450,
  "gifford": 29360,
  "##own": 12384,
  "nfc": 22309,
  "\u110c": 1464,
  "\u0936": 1336,
  "accreditation": 14893,
  "tobago": 17247,
  "circumstance": 25652,
  "##fold": 10371,
  "##cat": 11266,
  "invade": 18445,
  "[unused2]": 3,
  "changes": 3431,
  "mcqueen": 29265,
  "draft": 4433,
  "##tance": 26897,
  "1622": 28133,
  "psychological": 8317,
  "stroll": 27244,
  "psycho": 18224,
  "aviator": 24035,
  "ley": 25866,
  "hoffmann": 24437,
  "napkin": 20619,
  "hispanic": 6696,
  "busch": 15840,
  "suppose": 6814,
  "attention": 3086,
  "##bial": 21102,
  "behind": 2369,
  "##zz": 13213,
  "##side": 7363,
  "seat": 2835,
  "fritz": 12880,
  "wonders": 16278,
  "##ntation": 23436,
  "stared": 3592,
  "consular": 27326,
  "##low": 8261,
  "\u306a": 1667,
  "forests": 6138,
  "sugar": 5699,
  "sustainability": 15169,
  "heard": 2657,
  "##wyn": 11761,
  "bulldog": 28628,
  "shirts": 11344,
  "brownish": 19437,
  "##\u7a7a": 30456,
  "##\u0282": 29695,
  "`": 1036,
  "pursuant": 27081,
  "diocesan": 18680,
  "nawab": 26543,
  "researchers": 6950,
  "clint": 16235,
  "battista": 28422,
  "##yx": 17275,
  "sculpture": 6743,
  "drone": 18465,
  "med": 19960,
  "orphans": 21478,
  "archdeacon": 21742,
  "spawned": 18379,
  "hook": 8103,
  "##athing": 22314,
  "reacting": 24868,
  "centralized": 22493,
  "sentence": 6251,
  "##\u2206": 30122,
  "bursts": 19239,
  "defined": 4225,
  "fades": 26784,
  "sensitive": 7591,
  "recapture": 27639,
  "claudio": 19569,
  "cemeteries": 20973,
  "##scent": 27654,
  "sporting": 7419,
  "addicted": 23042,
  "\u11b7": 1487,
  "packaged": 21972,
  "flooding": 9451,
  "irrigation": 12442,
  "##oned": 17799,
  "##elial": 24587,
  "adam": 4205,
  "camped": 27077,
  "lutheran": 10034,
  "come": 2272,
  "##lage": 20679,
  "fortified": 13313,
  "bargaining": 21990,
  "louis": 3434,
  "shores": 13312,
  "wrestle": 25579,
  "recipients": 15991,
  "unfinished": 14342,
  "tata": 23236,
  "no": 2053,
  "protested": 11456,
  "collapse": 7859,
  "utility": 9710,
  "antigua": 26023,
  "##xt": 18413,
  "settings": 10906,
  "rajasthan": 16815,
  "pedestrians": 24946,
  "embrace": 9979,
  "##\u3075": 30200,
  "algerian": 16953,
  "\u10da": 1447,
  "425": 23285,
  "york": 2259,
  "##isse": 23491,
  "##owe": 29385,
  "feelings": 5346,
  "scarcely": 20071,
  "cummings": 20750,
  "1910": 4976,
  "addiction": 13449,
  "works": 2573,
  "colonists": 15526,
  "applied": 4162,
  "##86": 20842,
  "dynasty": 5321,
  "detector": 19034,
  "types": 4127,
  "valerie": 14264,
  "##rke": 25074,
  "[unused161]": 166,
  "[unused415]": 420,
  "beast": 6841,
  "marine": 3884,
  "optimistic": 21931,
  "subsp": 24807,
  "caution": 14046,
  "##rite": 17625,
  "formerly": 3839,
  "topical": 25665,
  "over": 2058,
  "missing": 4394,
  "thereby": 8558,
  "generally": 3227,
  "sousa": 28535,
  "tokugawa": 22065,
  "fitzroy": 21870,
  "irene": 12855,
  "##ply": 22086,
  "america": 2637,
  "volleyball": 7454,
  "##ame": 14074,
  "nay": 29349,
  "bo": 8945,
  "ads": 14997,
  "vulgar": 29364,
  "brooding": 28902,
  "excerpt": 28142,
  "[unused399]": 404,
  "puts": 8509,
  "various": 2536,
  "##athan": 29246,
  "\u99ac": 1980,
  "surface": 3302,
  "\u4e16": 1745,
  "belonging": 7495,
  "girl": 2611,
  "belongs": 7460,
  "scrambling": 25240,
  "1771": 20708,
  "former": 2280,
  "##koff": 26126,
  "1732": 27582,
  "parliament": 3323,
  "mineral": 9754,
  "[unused103]": 108,
  "bunny": 16291,
  "soul": 3969,
  "evening": 3944,
  "logistical": 28961,
  "journalism": 8083,
  "arkansas": 6751,
  "baths": 19692,
  "particularly": 3391,
  "##\u3057": 30183,
  "\uff0e": 1991,
  "initiation": 17890,
  "##rada": 28510,
  "glue": 25238,
  "neuroscience": 23700,
  "pilasters": 26752,
  "lived": 2973,
  "rob": 6487,
  "wentworth": 20572,
  "##jad": 27875,
  "restraints": 28054,
  "##\u4e00": 30266,
  "guys": 4364,
  "surreal": 16524,
  "perennial": 14638,
  "cracks": 15288,
  "[unused521]": 526,
  "quinlan": 28451,
  "severity": 18976,
  "[unused664]": 669,
  "##gles": 17125,
  "shape": 4338,
  "hiking": 13039,
  "eyeing": 19285,
  "torpedo": 9862,
  "main": 2364,
  "keel": 19602,
  "\u091c": 1319,
  "ejected": 22607,
  "198": 20003,
  "disciple": 17849,
  "##15": 16068,
  "plot": 5436,
  "operative": 12160,
  "immigration": 7521,
  "1827": 12309,
  "rhythm": 6348,
  "cuts": 7659,
  "adjustable": 26404,
  "attracting": 15411,
  "tensions": 13136,
  "tied": 5079,
  "hand": 2192,
  "players": 2867,
  "##rne": 12119,
  "##litz": 24725,
  "gustavo": 24801,
  "\u1d49": 1499,
  "entered": 3133,
  "##bilities": 14680,
  "reginald": 14435,
  "##ary": 5649,
  "[unused527]": 532,
  "##nger": 11392,
  "##tadt": 18808,
  "surely": 7543,
  "chips": 11772,
  "##or": 2953,
  "canteen": 26449,
  "##book": 8654,
  "isolation": 12477,
  "columbus": 8912,
  "facts": 8866,
  "##kara": 16566,
  "know": 2113,
  "engages": 24255,
  "##gne": 10177,
  "qualification": 8263,
  "43rd": 25747,
  "\u0569": 1224,
  "\u06be": 1307,
  "lagoon": 15825,
  "ethel": 19180,
  "motioned": 13054,
  "palaces": 22763,
  "rail": 4334,
  "##ography": 9888,
  "writhing": 26185,
  "mattress": 13342,
  "randy": 9744,
  "grimsby": 24470,
  "##inus": 13429,
  "\u21d2": 1591,
  "hits": 4978,
  "terence": 22677,
  "grimace": 25898,
  "workforce": 14877,
  "interstate": 7553,
  "traditions": 7443,
  "##hua": 14691,
  "unreleased": 13270,
  "##ays": 22916,
  "commuter": 14334,
  "lan": 17595,
  "##sse": 11393,
  "chicken": 7975,
  "adapted": 5967,
  "arab": 5424,
  "##36": 21619,
  "\u5b97": 1821,
  "[unused339]": 344,
  "valuable": 7070,
  "##olar": 19478,
  "plata": 19534,
  "relying": 18345,
  "unofficial": 11982,
  "excessive": 11664,
  "tyson": 19356,
  "sigismund": 26748,
  "comics": 5888,
  "##ein": 12377,
  "maxi": 21510,
  "enigma": 26757,
  "\u092c": 1329,
  "kolkata": 13522,
  "observers": 14009,
  "##film": 23665,
  "crimean": 20516,
  "taught": 4036,
  "runways": 24578,
  "##sters": 15608,
  "feast": 9831,
  "##aling": 21682,
  "obstacles": 15314,
  "sober": 17358,
  "elector": 20374,
  "isis": 18301,
  "flung": 14016,
  "goa": 15244,
  "acclaim": 10761,
  "##sburg": 9695,
  "inflated": 29561,
  "##ne": 2638,
  "laval": 26205,
  "provocative": 26422,
  "##naire": 20589,
  "liberty": 7044,
  "integer": 16109,
  "today": 2651,
  "topological": 24309,
  "##\u10db": 29984,
  "1962": 3705,
  "male": 3287,
  "##dorff": 26559,
  "[unused253]": 258,
  "characteristic": 8281,
  "ricky": 11184,
  "courier": 18092,
  "##ctric": 22601,
  "diversity": 8906,
  "nell": 20970,
  "awarded": 3018,
  "##bella": 21700,
  "ultrasound": 27312,
  "sul": 21396,
  "caesar": 11604,
  "##inating": 19185,
  "than": 2084,
  "scented": 25738,
  "##ncy": 9407,
  "contenders": 27236,
  "miners": 11257,
  "##\u6c35": 30420,
  "announcements": 25674,
  "laying": 10201,
  "[unused280]": 285,
  "superficial": 23105,
  "spirits": 8633,
  "34": 4090,
  "constantine": 12790,
  "maggie": 8538,
  "dynamics": 10949,
  "cameo": 12081,
  "enough": 2438,
  "motto": 12652,
  "1728": 26833,
  "details": 4751,
  "beetles": 14538,
  "104": 9645,
  "temples": 8436,
  "ya": 8038,
  "##\u56d7": 30323,
  "baptist": 7550,
  "tailor": 22701,
  "alderman": 18977,
  "rider": 7945,
  "ck": 23616,
  "##sant": 22341,
  "rivers": 5485,
  "##lined": 18194,
  "supper": 15264,
  "bowling": 9116,
  "[unused762]": 767,
  "unwilling": 15175,
  "assisted": 7197,
  "boring": 11771,
  "southwestern": 8772,
  "cemetery": 4528,
  "[unused131]": 136,
  "labour": 4428,
  "cad": 28353,
  "voltage": 10004,
  "shirt": 3797,
  "meanwhile": 5564,
  "collision": 12365,
  "strangled": 21384,
  "nonfiction": 25753,
  "##\u03be": 29729,
  "rugby": 4043,
  "\u0e23": 1417,
  "denim": 26762,
  "wasps": 23146,
  "koln": 28306,
  "bonnie": 12220,
  "network": 2897,
  "laser": 9138,
  "splitting": 14541,
  "##iv": 12848,
  "##mura": 16069,
  "eastward": 17318,
  "\u0f0b": 1424,
  "mornings": 16956,
  "zion": 19999,
  "competition": 2971,
  "chopper": 28057,
  "syllable": 16353,
  "\u05dd": 1254,
  "cher": 24188,
  "rift": 16931,
  "##utter": 26878,
  "overlooked": 17092,
  "\u09c7": 1381,
  "##ito": 9956,
  "undoubtedly": 17319,
  "edna": 21051,
  "mirage": 21483,
  "voluntarily": 17912,
  "[unused447]": 452,
  "##uck": 12722,
  "##\u0645": 22192,
  "boer": 19945,
  "malice": 28238,
  "southport": 27494,
  "explanations": 17959,
  "secretaries": 23660,
  "slade": 18048,
  "##\u706b": 30432,
  "parramatta": 22820,
  "##inking": 29377,
  "##iaceae": 23357,
  "acquire": 9878,
  "pork": 15960,
  "bjorn": 24998,
  "fountain": 9545,
  "platform": 4132,
  "fundraiser": 28536,
  "##iny": 24300,
  "ethnicity": 18240,
  "bamboo": 15216,
  "##rank": 26763,
  "exploding": 20728,
  "engines": 5209,
  "cognition": 26497,
  "\u7ae0": 1932,
  "relieved": 7653,
  "caine": 19881,
  "sawmill": 24744,
  "[unused933]": 938,
  "##gos": 12333,
  "06": 5757,
  "ward": 4829,
  "reviewing": 15252,
  "motifs": 17366,
  "[unused752]": 757,
  "michelle": 9393,
  "limits": 6537,
  "##ulates": 18969,
  "alvaro": 24892,
  "slightly": 3621,
  "cary": 20533,
  "al": 2632,
  "bianca": 18051,
  "##ish": 4509,
  "everybody": 7955,
  "production": 2537,
  "[unused250]": 255,
  "conservation": 5680,
  "[unused497]": 502,
  "austrian": 6161,
  "dragging": 11920,
  "moisture": 14098,
  "[unused245]": 250,
  "broadly": 13644,
  "pomerania": 18631,
  "##mond": 11442,
  "pending": 14223,
  "niger": 16842,
  "arcade": 10877,
  "automation": 19309,
  "intruder": 22841,
  "debuted": 6006,
  "schooling": 14118,
  "bali": 20222,
  "docks": 15093,
  "exited": 15284,
  "mutants": 23892,
  "##cheng": 21043,
  "practically": 8134,
  "unrelated": 15142,
  "stout": 18890,
  "awards": 2982,
  "energy": 2943,
  "spanned": 18212,
  "warmed": 17336,
  "\u308a": 1686,
  "courtney": 14139,
  "jamie": 6175,
  "jacqueline": 17551,
  "##aker": 22626,
  "murmured": 7152,
  "sponsors": 13162,
  "[unused921]": 926,
  "samba": 29086,
  "coat": 5435,
  "upright": 10051,
  "##\u2217": 30125,
  "gravitational": 19790,
  "private": 2797,
  "holmes": 9106,
  "smelled": 9557,
  "outdoors": 19350,
  "cultivated": 13237,
  "engage": 8526,
  "middlesbrough": 21655,
  "homosexual": 15667,
  "shrines": 22562,
  "##\u7f8e": 30461,
  "flinch": 23224,
  "charlotte": 5904,
  "daytime": 12217,
  "stature": 21120,
  "broadcasters": 18706,
  "[unused657]": 662,
  "dent": 21418,
  "asteroids": 26732,
  "drawing": 5059,
  "bedford": 12003,
  "14th": 6400,
  "depleted": 22595,
  "\u0458": 1214,
  "##tracted": 24301,
  "brushes": 22569,
  "##vn": 16022,
  "[unused854]": 859,
  "pulls": 8005,
  "##ditional": 27064,
  "vietnamese": 9101,
  "attractions": 13051,
  "antarctic": 10227,
  "kickoff": 25233,
  "faber": 21720,
  "movies": 5691,
  "cesare": 26708,
  "mt": 11047,
  "bautista": 27845,
  "\u3002": 1636,
  "rage": 7385,
  "[unused246]": 251,
  "paralyzed": 22348,
  "primera": 14837,
  "wilkinson": 16237,
  "1880s": 12751,
  "regulations": 7040,
  "formed": 2719,
  "accessible": 7801,
  "[unused354]": 359,
  "erich": 17513,
  "fortunate": 19590,
  "finland": 6435,
  "logan": 6307,
  "pedestrian": 14662,
  "bible": 6331,
  "bea": 26892,
  "boomed": 28908,
  "##75": 23352,
  "##38": 22025,
  "bard": 22759,
  "klaus": 16536,
  "iran": 4238,
  "cigar": 19135,
  "[unused952]": 957,
  "ares": 23631,
  "nodes": 14164,
  "\u028e": 1135,
  "##yev": 17240,
  "donaldson": 23164,
  "rotten": 11083,
  "shooters": 28310,
  "223": 20802,
  "diane": 12082,
  "vapor": 20064,
  "everyday": 10126,
  "mysteries": 15572,
  "groom": 18087,
  "2010": 2230,
  "equator": 26640,
  "zulu": 27359,
  "moat": 25266,
  "cats": 8870,
  "\u4fdd": 1766,
  "poetic": 13805,
  "1764": 21488,
  "vial": 28475,
  "endless": 10866,
  "preferences": 18394,
  "rwanda": 17591,
  "nottingham": 11331,
  "usual": 5156,
  "houghton": 21234,
  "boarded": 17383,
  "succumbed": 25642,
  "principally": 16552,
  "##sworth": 12255,
  "##fm": 16715,
  "detainees": 26485,
  "seated": 8901,
  "mana": 24951,
  "rochelle": 25649,
  "[unused96]": 97,
  "unarmed": 23206,
  "\u1d65": 1510,
  "ought": 11276,
  "reason": 3114,
  "1960": 3624,
  "active": 3161,
  "anwar": 28372,
  "##chus": 16194,
  "smell": 5437,
  "##\u110c": 30000,
  "valid": 9398,
  "[unused692]": 697,
  "##aga": 16098,
  "peters": 12420,
  "ethan": 6066,
  "chevy": 29009,
  "enforce": 16306,
  "sections": 5433,
  "poses": 22382,
  "##nath": 16207,
  "humanoid": 28051,
  "exceeds": 23651,
  "clerical": 23106,
  "tack": 26997,
  "##\u0255": 29680,
  "kanye": 29270,
  "surrounding": 4193,
  "portrait": 6533,
  "[unused473]": 478,
  "crossover": 16335,
  "jenks": 15119,
  "printing": 8021,
  "patent": 7353,
  "verona": 20197,
  "properly": 7919,
  "##\u22c5": 30141,
  "brush": 8248,
  "nirvana": 26530,
  "immensely": 24256,
  "rid": 9436,
  "1603": 25625,
  "beta": 8247,
  "\u300e": 1643,
  "##rites": 28884,
  "##uration": 18924,
  "##dr": 13626,
  "##cr": 26775,
  "lengths": 10742,
  "##ano": 6761,
  "mongols": 22235,
  "##gative": 26792,
  "eduard": 20424,
  "##\u2033": 30067,
  "herds": 28822,
  "##jected": 24455,
  "##utation": 26117,
  "imagination": 9647,
  "##duction": 16256,
  "stroking": 14943,
  "[unused71]": 72,
  "droplets": 27126,
  "magma": 28933,
  "twisted": 6389,
  "76": 6146,
  "##isen": 28992,
  "247": 23380,
  "himself": 2370,
  "estranged": 24211,
  "marriage": 3510,
  "quiet": 4251,
  "##ppa": 13944,
  "afghan": 12632,
  "sentiment": 15792,
  "lady": 3203,
  "distributor": 16632,
  "[unused25]": 26,
  "##lving": 25780,
  "##ratic": 23671,
  "personality": 6180,
  "confirmation": 13964,
  "##gur": 27390,
  "cornish": 17797,
  "[unused606]": 611,
  "##\u03b8": 29725,
  "instances": 12107,
  "sanchez": 10568,
  "flesh": 5771,
  "dmitry": 22141,
  "\u03c1": 1171,
  "grabbed": 4046,
  "livingston": 14109,
  "[unused315]": 320,
  "##itz": 8838,
  "shannon": 10881,
  "burnham": 25295,
  "crook": 19302,
  "\u3051": 1654,
  "ortiz": 19439,
  "##mora": 22122,
  "murder": 4028,
  "1930": 4479,
  "prepared": 4810,
  "exposed": 6086,
  "santana": 21158,
  "##\u4e5f": 30276,
  "\u308c": 1688,
  "##rey": 15202,
  "intend": 13566,
  "disposal": 13148,
  "longer": 2936,
  "expand": 7818,
  "mandates": 25979,
  "##uram": 27618,
  "directive": 16449,
  "##ady": 18632,
  "awaiting": 15497,
  "bracket": 21605,
  "##rator": 16259,
  "vines": 16702,
  "1858": 8517,
  "eun": 26070,
  "[unused299]": 304,
  "##\u2030": 30065,
  "verse": 7893,
  "cleopatra": 22003,
  "##row": 10524,
  "converted": 4991,
  "settlements": 7617,
  "assigned": 4137,
  "mum": 12954,
  "buck": 10131,
  "sister": 2905,
  "\u30a8": 1698,
  "kari": 27356,
  "staten": 24161,
  "fourteen": 7426,
  "pathogen": 26835,
  "anchorage": 21086,
  "touchdowns": 10183,
  "powell": 8997,
  "prior": 3188,
  "##lder": 16502,
  "rivera": 14043,
  "roses": 10529,
  "##gau": 20420,
  "creepy": 17109,
  "realities": 22213,
  "unit": 3131,
  "spokane": 21878,
  "\u0565": 1223,
  "darmstadt": 28381,
  "[unused46]": 47,
  "[unused270]": 275,
  "compromise": 12014,
  "##plane": 11751,
  "lbs": 20702,
  "##ologist": 8662,
  "retreat": 7822,
  "protect": 4047,
  "rattled": 19252,
  "buffet": 28305,
  "employment": 6107,
  "regions": 4655,
  "boasted": 23390,
  "chiefly": 15897,
  "guidelines": 11594,
  "##taking": 17904,
  "hahn": 24266,
  "hbo": 14633,
  "republican": 3951,
  "lavish": 22689,
  "isaac": 7527,
  "taunton": 28181,
  "##itte": 27100,
  "\u2080": 1547,
  "torment": 21741,
  "crosby": 14282,
  "merrill": 16239,
  "percy": 11312,
  "##dicated": 26022,
  "redemption": 18434,
  "revelations": 22191,
  "licenses": 15943,
  "earnest": 17300,
  "enjoying": 9107,
  "influential": 6383,
  "helium": 22764,
  "changing": 5278,
  "[unused472]": 477,
  "\uff5e": 1995,
  "##bron": 21337,
  "##jet": 15759,
  "britannia": 24677,
  "eyelids": 16544,
  "career": 2476,
  "enabling": 12067,
  "nun": 16634,
  "ness": 23384,
  "charges": 5571,
  "shire": 13182,
  "ashton": 13772,
  "daphne": 16847,
  "uneasy": 15491,
  "wc": 15868,
  "waves": 5975,
  "convened": 19596,
  "exiled": 14146,
  "texas": 3146,
  "dysfunction": 28466,
  "countdown": 18144,
  "##cki": 18009,
  "dealers": 16743,
  "##pi": 8197,
  "adverse": 15316,
  "cute": 10140,
  "mojo": 28017,
  "1967": 3476,
  "sitcom": 13130,
  "uh": 7910,
  "##lous": 15534,
  "lana": 16554,
  "adventist": 25696,
  "##agger": 27609,
  "##ouin": 25058,
  "susannah": 20471,
  "staggered": 14648,
  "upland": 25770,
  "assessing": 20077,
  "elsewhere": 6974,
  "breakup": 19010,
  "complaining": 17949,
  "##bard": 21458,
  "formula": 5675,
  "hussain": 20093,
  "##powering": 23948,
  "lass": 27333,
  "distrust": 29245,
  "believing": 8929,
  "weave": 25308,
  "hampson": 21780,
  "android": 11924,
  "seminars": 17239,
  "\u30e7": 1730,
  "##rated": 9250,
  "tna": 20108,
  "##tric": 12412,
  "conviction": 10652,
  "##pped": 11469,
  "[unused259]": 264,
  "culminating": 16979,
  "envisioned": 18035,
  "collaborator": 18843,
  "##tagram": 23091,
  "cuthbert": 24583,
  "measuring": 9854,
  "fuels": 20145,
  "rufus": 18316,
  "breton": 16659,
  "lac": 18749,
  "##(": 29619,
  "moving": 3048,
  "swelling": 18348,
  "stockings": 26412,
  "filipino": 10275,
  "##ton": 2669,
  "jenny": 8437,
  "##bn": 24700,
  "maintains": 9319,
  "copyright": 9385,
  "penalties": 12408,
  "haifa": 21303,
  "##vich": 12933,
  "ve": 2310,
  "extend": 7949,
  "fictional": 7214,
  "defensive": 5600,
  "padua": 24941,
  "lcd": 27662,
  "[unused665]": 670,
  "vine": 15351,
  "silver": 3165,
  "selena": 19166,
  "lift": 6336,
  "defeated": 3249,
  "jimenez": 22790,
  "racism": 14398,
  "[unused83]": 84,
  "merits": 22617,
  "albeit": 12167,
  "flashes": 16121,
  "##\u0bb5": 29930,
  "alignment": 12139,
  "\u20b1": 1575,
  "economics": 5543,
  "##ogenic": 24278,
  "navigation": 9163,
  "servant": 7947,
  "overland": 21400,
  "jug": 26536,
  "wavy": 23098,
  "jillian": 27286,
  "asphalt": 16295,
  "##ty": 3723,
  "dissipated": 22572,
  "ulrich": 19619,
  "999": 25897,
  "halle": 19769,
  "caribbean": 7139,
  "invisible": 8841,
  "drink": 4392,
  "chrysler": 17714,
  "norwegian": 5046,
  "##lib": 29521,
  "freelance": 15919,
  "trapping": 22977,
  "taliban": 16597,
  "transcription": 14193,
  "##bey": 19182,
  "[unused536]": 541,
  "readily": 12192,
  "confinement": 21551,
  "algae": 18670,
  "payton": 28666,
  "briefly": 4780,
  "coma": 16571,
  "retailers": 16629,
  "##cd": 19797,
  "misty": 15167,
  "1820s": 28504,
  "##\u00ab": 29654,
  "stimulation": 20858,
  "imam": 17189,
  "exclude": 23329,
  "##ode": 10244,
  "national": 2120,
  "daughters": 5727,
  "thorne": 14296,
  "##\u05ea": 29813,
  "responded": 5838,
  "crates": 27619,
  "##\u571f": 30327,
  "33": 3943,
  "reservoir": 8071,
  "krishna": 10871,
  "$": 1002,
  "publicity": 11845,
  "##\u09b6": 29910,
  "practiced": 9051,
  "asiatic": 23983,
  "texted": 24637,
  "##\u0f0b": 29960,
  "archives": 8264,
  "[unused767]": 772,
  "offensive": 5805,
  "walters": 19097,
  "flea": 26735,
  "elevation": 6678,
  "prefecture": 7498,
  "##falls": 28067,
  "sandra": 12834,
  "yourself": 4426,
  "26th": 14935,
  "\u2205": 1593,
  "lu": 11320,
  "routinely": 19974,
  "tampa": 9925,
  "[unused423]": 428,
  "break": 3338,
  "debra": 28762,
  "sportsman": 27168,
  "classed": 27811,
  "butterfly": 9112,
  "ru": 21766,
  "340": 16029,
  "##oire": 26250,
  "acclaimed": 10251,
  "write": 4339,
  "##illy": 20577,
  "allied": 6035,
  "u2": 23343,
  "##\u6226": 30382,
  "lb": 6053,
  "\u7af9": 1933,
  "wasting": 18313,
  "cruiser": 10844,
  "usl": 22448,
  "niccolo": 27033,
  "clutching": 14197,
  "husbands": 19089,
  "01": 5890,
  "##\u0574": 29776,
  "bends": 23394,
  "profitable": 15282,
  "##dai": 21351,
  "transcript": 24051,
  "##pt": 13876,
  "squeeze": 11025,
  "local": 2334,
  "riga": 17557,
  "famous": 3297,
  "cage": 7980,
  "anchored": 14453,
  "coming": 2746,
  "arid": 17511,
  "elm": 17709,
  "hawthorne": 23440,
  "beckett": 20599,
  "##\u10d2": 29976,
  "##rage": 24449,
  "bon": 14753,
  "nearing": 23454,
  "gods": 5932,
  "##bat": 14479,
  "1804": 13140,
  "producers": 6443,
  "placed": 2872,
  "celebration": 7401,
  "bits": 9017,
  "bolivia": 11645,
  "regained": 11842,
  "fresh": 4840,
  "##\u0641": 29833,
  "sonar": 24609,
  "abduction": 23415,
  "##\u2116": 30106,
  "04": 5840,
  "leasing": 26707,
  "creating": 4526,
  "diagram": 16403,
  "orders": 4449,
  "prose": 12388,
  "ensures": 21312,
  "ecumenical": 23540,
  "jiangsu": 28091,
  "sans": 20344,
  "##izations": 22318,
  "##rwood": 20941,
  "magnitude": 10194,
  "##\u09a3": 29897,
  "lim": 18525,
  "##lly": 9215,
  "porsche": 16099,
  "constructed": 3833,
  "ds": 16233,
  "regulate": 15176,
  "##recht": 28109,
  "dumont": 25830,
  "qur": 23183,
  "developed": 2764,
  "horne": 24084,
  "1856": 8708,
  "spokesperson": 15974,
  "tables": 7251,
  "felicia": 27579,
  "swallowed": 7351,
  "softly": 5238,
  "joyce": 11830,
  "##yn": 6038,
  "freeze": 13184,
  "disputes": 11936,
  "estuary": 18056,
  "geraldine": 26987,
  "##sis": 6190,
  "walden": 24834,
  "upset": 6314,
  "##kou": 24861,
  "wyoming": 10622,
  "##vable": 12423,
  "devil": 6548,
  "ottomans": 17774,
  "74": 6356,
  "##\u6708": 30398,
  "ferreira": 26135,
  "slaughtered": 23044,
  "apple": 6207,
  "greed": 22040,
  "deafening": 28840,
  "brakes": 13627,
  "hazard": 15559,
  "sumatra": 18262,
  "greenwich": 13861,
  "just": 2074,
  "traps": 16735,
  "reset": 25141,
  "ham": 10654,
  "##yas": 16303,
  "328": 25256,
  "##ws": 9333,
  "informant": 28694,
  "##eza": 28640,
  "jia": 25871,
  "\u90e1": 1959,
  "crowded": 10789,
  "##\u10dc": 29985,
  "\u0633": 1282,
  "grasping": 20854,
  "acceptance": 9920,
  "combination": 5257,
  "##rden": 18246,
  "danielle": 18490,
  "exposure": 7524,
  "##nburg": 22642,
  "rebound": 27755,
  "pigment": 28815,
  "focus": 3579,
  "petitions": 24320,
  "probability": 9723,
  "neutron": 20393,
  "sutherland": 14274,
  "extending": 8402,
  "suzuki": 14278,
  "energies": 19320,
  "ross": 5811,
  "##\u03c1": 29732,
  "##gny": 19393,
  "woody": 13703,
  "nielsen": 13188,
  "carousel": 27628,
  "ruthless": 18101,
  "spire": 19823,
  "potato": 14557,
  "shoulder": 3244,
  "##ko": 3683,
  "##\u00f8y": 27688,
  "##uded": 13936,
  "louisiana": 5773,
  "##ridge": 9438,
  "joining": 5241,
  "battled": 19787,
  "asian": 4004,
  "novice": 23131,
  "##\u2084": 17004,
  "kat": 10645,
  "##hani": 23573,
  "plaid": 26488,
  "##\u30e9": 30257,
  "##vocation": 19152,
  "##ade": 9648,
  "[unused888]": 893,
  "##unds": 26698,
  "##ym": 24335,
  "##made": 21565,
  "##urai": 24804,
  "sort": 4066,
  "brackets": 19719,
  "wilkes": 20635,
  "tertiary": 13553,
  "screwing": 29082,
  "sang": 6369,
  "##icient": 20132,
  "increasing": 4852,
  "old": 2214,
  "michigan": 4174,
  "##\u1102": 29992,
  "unmarked": 25779,
  "##elin": 18809,
  "adorable": 23677,
  "overseeing": 19642,
  "##\u0582": 29785,
  "[unused160]": 165,
  "tricks": 12225,
  "hmm": 17012,
  "execute": 15389,
  "##rous": 13288,
  "[unused57]": 58,
  "vimes": 28482,
  "hutton": 20408,
  "theorem": 9872,
  "justification": 19777,
  "bill": 3021,
  "emeritus": 12372,
  "mali": 16007,
  "scandinavia": 20612,
  "societal": 23382,
  "decade": 5476,
  "moonlight": 11986,
  "\u0993": 1352,
  "doi": 9193,
  "introductory": 23889,
  "canyon": 8399,
  "souza": 26598,
  "successor": 6332,
  "264": 21611,
  "bliss": 13670,
  "fingertips": 12206,
  "tourist": 7538,
  "thong": 27468,
  "grenade": 17038,
  "salem": 10389,
  "\u1167": 1474,
  "baku": 16807,
  "##ided": 14097,
  "shut": 3844,
  "loudly": 9928,
  "fit": 4906,
  "lou": 10223,
  "##com": 9006,
  "known": 2124,
  "moldova": 16772,
  "##iver": 16402,
  "sentinel": 16074,
  "##drick": 24092,
  "talked": 5720,
  "populace": 22508,
  "ev": 23408,
  "alexandra": 10481,
  "##puram": 17809,
  "blending": 23293,
  "reworked": 27575,
  "drive": 3298,
  "brighter": 16176,
  "settles": 27221,
  "office": 2436,
  "precision": 11718,
  "damn": 4365,
  "kaitlyn": 28584,
  "password": 20786,
  "initiating": 26616,
  "gilles": 21717,
  "cool": 4658,
  "hitchcock": 19625,
  "cypress": 22183,
  "##\u2079": 30078,
  "databases": 17881,
  "elliptic": 29413,
  "scrubbed": 27820,
  "resurrected": 23053,
  "montgomery": 8482,
  "##lay": 8485,
  "kashmir": 13329,
  "epic": 8680,
  "anonymous": 10812,
  "pmid": 20117,
  "odds": 10238,
  "##oes": 22504,
  "interfaces": 19706,
  "styles": 6782,
  "como": 18609,
  "gundam": 26152,
  "manner": 5450,
  "suffix": 16809,
  "fugitive": 21329,
  "rate": 3446,
  "labourers": 24043,
  "[unused424]": 429,
  "aims": 8704,
  "baldwin": 10970,
  "formations": 13197,
  "##fl": 10258,
  "rigged": 25216,
  "encounter": 8087,
  "demos": 18267,
  "hs": 26236,
  "threw": 4711,
  "spinal": 16492,
  "dominance": 13811,
  "mushrooms": 23827,
  "100": 2531,
  "##krishna": 23017,
  "leaking": 24325,
  "careless": 23358,
  "clarinet": 12089,
  "para": 11498,
  "\u062e": 1277,
  "dealer": 11033,
  "palma": 23985,
  "sculptures": 10801,
  "adventurer": 29506,
  "pistons": 24399,
  "finishes": 12321,
  "cherokee": 13796,
  "plains": 8575,
  "byrd": 17845,
  "montrose": 24990,
  "walkers": 22559,
  "1867": 7517,
  "parallels": 18588,
  "dorian": 16092,
  "##bry": 25731,
  "frequently": 4703,
  "predecessors": 16372,
  "17th": 5550,
  "gunner": 14850,
  "baffled": 29088,
  "defenders": 12534,
  "kang": 16073,
  "attachment": 14449,
  "shaw": 8233,
  "au": 8740,
  "jersey": 3933,
  "mona": 13813,
  "ache": 12336,
  "##ned": 7228,
  "\u2099": 1568,
  "grim": 11844,
  "[unused826]": 831,
  "clips": 15281,
  "repairs": 10315,
  "serialized": 27289,
  "choked": 12444,
  "automotive": 12945,
  "winked": 14217,
  "##esh": 9953,
  "keynote": 25569,
  "tips": 10247,
  "cleansing": 26799,
  "##nem": 25832,
  "1980s": 3865,
  "assam": 15181,
  "##nl": 20554,
  "duchy": 11068,
  "[unused819]": 824,
  "willie": 9893,
  "makeup": 5789,
  "painting": 4169,
  "merge": 13590,
  "excuses": 21917,
  "festivities": 21206,
  "##games": 26393,
  "bundles": 26825,
  "[unused874]": 879,
  "monkey": 10608,
  "woo": 15854,
  "memo": 24443,
  "duke": 3804,
  "interpretation": 7613,
  "economic": 3171,
  "kan": 22827,
  "equipment": 3941,
  "\u2021": 1527,
  "travelled": 7837,
  "##bet": 20915,
  "viper": 17947,
  "[unused427]": 432,
  "##fc": 11329,
  "somerset": 9198,
  "reflect": 8339,
  "miami": 5631,
  "##df": 20952,
  "african": 3060,
  "watered": 27129,
  "podium": 14502,
  "candidate": 4018,
  "murray": 6264,
  "formulation": 20219,
  "luftwaffe": 17740,
  "atp": 12649,
  "privilege": 14293,
  "##ute": 10421,
  "ballot": 10428,
  "interception": 17385,
  "medium": 5396,
  "##rc": 11890,
  "warden": 13745,
  "acquired": 3734,
  "##tel": 9834,
  "configurations": 22354,
  "recovering": 13400,
  "marcus": 6647,
  "offender": 25042,
  "##chment": 22729,
  "facility": 4322,
  "bloomberg": 22950,
  "conversation": 4512,
  "##mal": 9067,
  "underwater": 11564,
  "freyja": 7075,
  "fargo": 23054,
  "##lini": 22153,
  "acacia": 24766,
  "##\u2ea9": 30158,
  "offers": 4107,
  "bandwidth": 20235,
  "##ape": 24065,
  "##yard": 14132,
  "legislator": 22964,
  "rebellious": 22614,
  "broadcaster": 11995,
  "##kers": 11451,
  "ah": 6289,
  "decreed": 28447,
  "lance": 9993,
  "ballroom": 14307,
  "user": 5310,
  "faced": 4320,
  "waltz": 17569,
  "a": 1037,
  "taxation": 14952,
  "calming": 23674,
  "##jure": 25243,
  "globally": 16452,
  "turnout": 15512,
  "dorothy": 9984,
  "mca": 22432,
  "sprinted": 25156,
  "\u2097": 1566,
  "claude": 8149,
  "##ghan": 22218,
  "en": 4372,
  "steve": 3889,
  "##`": 29639,
  "voyages": 21993,
  "\u2030": 1530,
  "1947": 4006,
  "[unused882]": 887,
  "neolithic": 19061,
  "cellar": 15423,
  "cookies": 16324,
  "\u00fe": 1101,
  "confronting": 26964,
  "blend": 12586,
  "qualities": 11647,
  "scarlett": 20862,
  "hearst": 25419,
  "indies": 9429,
  "signaled": 22319,
  "hurricanes": 17035,
  "##ida": 8524,
  "##lock": 7878,
  "hypothesis": 10744,
  "drilled": 24311,
  "\u793a": 1923,
  "herald": 9536,
  "##igate": 28731,
  "##vin": 6371,
  "ji": 10147,
  "spot": 3962,
  "located": 2284,
  "vox": 29450,
  "navigate": 22149,
  "patrol": 6477,
  "spotlight": 17763,
  "wehrmacht": 23443,
  "roaming": 24430,
  "##inn": 23111,
  "rod": 8473,
  "brilliance": 28850,
  "continent": 9983,
  "mandatory": 10915,
  "\u6ca2": 1898,
  "##ovich": 12303,
  "[unused526]": 531,
  "tau": 19982,
  "betsy": 22396,
  "##pate": 17585,
  "martins": 19953,
  "##hea": 20192,
  "[unused154]": 159,
  "purdue": 19749,
  "##ologists": 16886,
  "mendes": 27916,
  "andover": 29463,
  "jedi": 27273,
  "warns": 19428,
  "##uber": 21436,
  "unpopular": 19657,
  "represents": 5836,
  "[unused836]": 841,
  "beef": 12486,
  "1500": 10347,
  "395": 24673,
  "mvp": 12041,
  "aldo": 28163,
  "[unused465]": 470,
  "montana": 8124,
  "mecca": 21340,
  "butterflies": 15023,
  "erasmus": 26809,
  "baggage": 20220,
  "ce": 8292,
  "##oic": 19419,
  "##optera": 25324,
  "##\u6797": 30407,
  "silenced": 25030,
  "resort": 7001,
  "vh1": 26365,
  "fuller": 12548,
  "ensure": 5676,
  "haze": 16332,
  "[unused198]": 203,
  "honorable": 13556,
  "##xley": 20959,
  "##\u10e3": 29990,
  "dieter": 27976,
  "youngest": 6587,
  "holstein": 18864,
  "attract": 9958,
  "walkway": 19467,
  "timothy": 10805,
  "wolfgang": 13865,
  "madness": 12013,
  "saga": 12312,
  "mounted": 5614,
  "exceptionally": 17077,
  "edit": 10086,
  "rabbit": 10442,
  "courtroom": 20747,
  "##\u798f": 30452,
  "##ima": 9581,
  "\u00a5": 1071,
  "serviced": 22858,
  "##mba": 11201,
  "anticipating": 26481,
  "cruz": 8096,
  "##\u03c5": 29735,
  "spoon": 15642,
  "tentacles": 24719,
  "mohan": 18529,
  "begging": 12858,
  "##llation": 20382,
  "##sir": 29481,
  "##\u0989": 29886,
  "garcia": 7439,
  "##\u043a": 23925,
  "unconscious": 9787,
  "tags": 22073,
  "##bane": 27543,
  "arrange": 13621,
  "##dict": 29201,
  "arrows": 12563,
  "electrically": 29103,
  "sucking": 13475,
  "sim": 21934,
  "urged": 9720,
  "nilsson": 29376,
  "\u5f18": 1843,
  "way": 2126,
  "loser": 10916,
  "procedural": 24508,
  "involved": 2920,
  "\u8c9d": 1952,
  "mercenaries": 19331,
  "[unused404]": 409,
  "elephant": 10777,
  "multicultural": 27135,
  "frowned": 7335,
  "##lev": 20414,
  "bernhard": 21432,
  "wants": 4122,
  "##bt": 19279,
  "resembling": 15525,
  "ng": 12835,
  "##zhou": 9791,
  "##lewood": 26580,
  "##view": 8584,
  "friendship": 6860,
  "##rds": 17811,
  "ideally": 28946,
  "iris": 11173,
  "##ons": 5644,
  "##\u0634": 29825,
  "##ject": 20614,
  "silent": 4333,
  "##schaft": 26527,
  "steiner": 21264,
  "##lating": 22248,
  "##sey": 7952,
  "supplements": 25654,
  "stars": 3340,
  "1913": 5124,
  "hoarse": 21221,
  "stammered": 28532,
  "casimir": 24701,
  "organs": 11595,
  "discretion": 19258,
  "lamb": 12559,
  "universally": 21186,
  "reinstated": 18671,
  "bombay": 11831,
  "rug": 20452,
  "greene": 11006,
  "costs": 5366,
  "##\u0f44": 29963,
  "ipod": 26322,
  "coincidence": 16507,
  "tracts": 22069,
  "atoms": 13353,
  "reactors": 22223,
  "noses": 27518,
  "goddard": 22547,
  "[unused949]": 954,
  "stuff": 4933,
  "fancy": 11281,
  "encircled": 25759,
  "[unused550]": 555,
  "punishments": 29115,
  "aerodrome": 23843,
  "skeletons": 24365,
  "reformed": 9114,
  "##ting": 3436,
  "shrub": 15751,
  "guggenheim": 20402,
  "faux": 29276,
  "cynical": 26881,
  "##neo": 23585,
  "undergone": 17215,
  "242": 22431,
  "brows": 11347,
  "disbanded": 8532,
  "cognitive": 10699,
  "calculated": 10174,
  "nationals": 10342,
  "slate": 12796,
  "plotting": 20699,
  "hirsch": 28127,
  "attach": 22476,
  "lund": 21860,
  "\u30ec": 1734,
  "##\u110e": 30001,
  "rubbish": 29132,
  "##ulata": 18060,
  "easiest": 25551,
  "franco": 9341,
  "##leader": 19000,
  "botanic": 27761,
  "##\u30b5": 30231,
  "##60": 16086,
  "angel": 4850,
  "riot": 11421,
  "blogs": 23012,
  "freaked": 22783,
  "glare": 10982,
  "1712": 28460,
  "sox": 9175,
  "179": 20311,
  "harsh": 8401,
  "[unused219]": 224,
  "##basket": 25351,
  "toured": 7255,
  "celebrity": 8958,
  "##onic": 12356,
  "##sius": 24721,
  "##vation": 21596,
  "stafford": 15064,
  "##frey": 22586,
  "electro": 16175,
  "##stead": 25647,
  "vulnerability": 18130,
  "dominates": 29532,
  "stalking": 20070,
  "##tec": 26557,
  "unified": 10562,
  "ideal": 7812,
  "wonder": 4687,
  "janet": 9965,
  "ordered": 3641,
  "provides": 3640,
  "ava": 10927,
  "honesty": 16718,
  "1945": 3386,
  "##\u53e4": 30315,
  "sf": 16420,
  "[unused6]": 7,
  "lowest": 7290,
  "1707": 25029,
  "##dd": 14141,
  "bratislava": 22992,
  "closed": 2701,
  "##dition": 20562,
  "##erin": 23282,
  "deny": 9772,
  "ensemble": 7241,
  "defenses": 13345,
  "soil": 5800,
  "sentences": 11746,
  "sincere": 18006,
  "modernization": 20181,
  "mayhem": 26865,
  "jumper": 21097,
  "fossil": 10725,
  "[unused857]": 862,
  "gaul": 26522,
  "hidden": 5023,
  "animator": 25132,
  "##lington": 18722,
  "mina": 19808,
  "##phobic": 20200,
  "maddie": 17805,
  "potentially": 9280,
  "hunger": 9012,
  "vegetation": 10072,
  "[unused62]": 63,
  "##brush": 18623,
  "##\u028a": 29698,
  "colloquially": 23992,
  "wheeler": 12819,
  "airplane": 13297,
  "sword": 4690,
  "lia": 22393,
  "dug": 8655,
  "##die": 10265,
  "differing": 16965,
  "plural": 13994,
  "via": 3081,
  "duplicate": 24473,
  "timmy": 27217,
  "ezio": 23043,
  "europeans": 13481,
  "researching": 20059,
  "martini": 24480,
  "constitution": 4552,
  "##\u0621": 29815,
  "ongoing": 7552,
  "antiques": 27763,
  "spontaneous": 17630,
  "barrio": 25676,
  "\u516c": 1772,
  "##veda": 28614,
  "madrid": 6921,
  "narrow": 4867,
  "\u30b1": 1703,
  "cloth": 8416,
  "handkerchief": 23975,
  "lizzie": 15860,
  "coordinator": 10669,
  "rico": 7043,
  "muscled": 24909,
  "armenia": 10110,
  "pro": 4013,
  "adele": 17623,
  "ellison": 21513,
  "##elling": 23918,
  "routing": 16972,
  "oil": 3514,
  "omar": 13192,
  "rails": 15168,
  "soviet": 3354,
  "marge": 25532,
  "te": 8915,
  "ives": 23945,
  "##rio": 9488,
  "interested": 4699,
  "throbbing": 17061,
  "tom": 3419,
  "maps": 7341,
  "buenos": 9204,
  "relegation": 9591,
  "208": 18512,
  "tearing": 13311,
  "yoo": 26823,
  "\u53e4": 1789,
  "macon": 20025,
  "[unused440]": 445,
  "austen": 24177,
  "##stan": 12693,
  "loren": 28779,
  "fare": 13258,
  "charlie": 4918,
  "m3": 29061,
  "potential": 4022,
  "##sboro": 25623,
  "##mad": 25666,
  "##twined": 21077,
  "##\u3088": 30210,
  "indexed": 25331,
  "scoop": 23348,
  "keen": 10326,
  "headmaster": 16296,
  "pairs": 7689,
  "hide": 5342,
  "kenton": 25446,
  "important": 2590,
  "artist": 3063,
  "verbs": 16025,
  "hobbs": 23748,
  "##\u208d": 30087,
  "losses": 6409,
  "velocity": 10146,
  "hitler": 8042,
  "relate": 14396,
  "becky": 14407,
  "draws": 9891,
  "quarries": 27069,
  "heidelberg": 16793,
  "comprised": 11539,
  "##lova": 24221,
  "##\u1d64": 30044,
  "##ip": 11514,
  "##nell": 9091,
  "404": 24837,
  "aggregation": 28041,
  "administered": 8564,
  "compliant": 24577,
  "##tenberg": 21806,
  "[CLS]": 101,
  "1723": 26621,
  "rana": 22175,
  "seventies": 26232,
  "turnbull": 26439,
  "##hiro": 18334,
  "appearances": 3922,
  "\u0255": 1113,
  "##\u0283": 29696,
  "##eral": 21673,
  "##uin": 20023,
  "wiley": 18825,
  "muhammad": 7187,
  "witnessed": 9741,
  "literally": 6719,
  "partridge": 26079,
  "##ial": 4818,
  "bytes": 27507,
  "amounts": 8310,
  "\u2018": 1520,
  "arbitrary": 15275,
  "silk": 6953,
  "electors": 19165,
  "##iom": 18994,
  "##dara": 25329,
  "##tem": 18532,
  "##lion": 18964,
  "##folia": 21710,
  "paranoia": 27890,
  "generate": 9699,
  "##pc": 15042,
  "##grapher": 18657,
  "nods": 11232,
  "cappella": 23013,
  "formulas": 25814,
  "legends": 9489,
  "probably": 2763,
  "flash": 5956,
  "rodney": 13898,
  "nobles": 13969,
  "taller": 12283,
  "subsidy": 28768,
  "academia": 16926,
  "jesuits": 20297,
  "\u0f58": 1432,
  "fitness": 10516,
  "alternatives": 15955,
  "scan": 13594,
  "policies": 6043,
  "##\u30b3": 30230,
  "##anian": 26032,
  "tumble": 28388,
  "border": 3675,
  "mm": 3461,
  "thru": 27046,
  "lacked": 10858,
  "dissatisfied": 25956,
  "09": 5641,
  "striking": 8478,
  "##rford": 26430,
  "dave": 4913,
  "lew": 24992,
  "tolerance": 13986,
  "bailey": 8925,
  "insistence": 20616,
  "sobbed": 25960,
  "ease": 7496,
  "pods": 26723,
  "forbidden": 10386,
  "remember": 3342,
  "oaks": 13396,
  "##\u5343": 30310,
  "sean": 5977,
  "[unused681]": 686,
  "bury": 11010,
  "copper": 6967,
  "panties": 12095,
  "mutiny": 19306,
  "ruling": 6996,
  "spare": 8622,
  "portals": 27388,
  "traverse": 20811,
  "stampede": 29375,
  "ridges": 16386,
  "idaho": 9795,
  "gulp": 26546,
  "wrapped": 5058,
  "##sby": 14478,
  "aquatics": 26649,
  "##ised": 5084,
  "rogue": 12406,
  "goran": 28356,
  "burt": 18611,
  "sensor": 13617,
  "##\u203f": 30069,
  "breeze": 9478,
  "jozef": 23258,
  "[unused309]": 314,
  "quilt": 27565,
  "champs": 29008,
  "sake": 8739,
  "martyr": 17216,
  "sustaining": 22663,
  "##ema": 14545,
  "##room": 9954,
  "withdrawn": 9633,
  "129": 14378,
  "immersed": 26275,
  "briefs": 28760,
  "dressing": 11225,
  "approve": 14300,
  "musicians": 5389,
  "ceylon": 16447,
  "stolen": 7376,
  "maverick": 27187,
  "freaks": 29526,
  "originated": 7940,
  "settlers": 7322,
  "receptionist": 23775,
  "trevor": 8672,
  "postmaster": 20707,
  "ye": 6300,
  "pray": 11839,
  "southeast": 4643,
  "inclusion": 10502,
  "debating": 20767,
  "and": 1998,
  "precedent": 20056,
  "archie": 13255,
  "##filtration": 28674,
  "feathers": 12261,
  "banana": 15212,
  "transcribed": 26223,
  "fremantle": 20358,
  "sectors": 11105,
  "##llas": 25816,
  "##uan": 13860,
  "vigorously": 22400,
  "jason": 4463,
  "##ico": 11261,
  "[unused56]": 57,
  "##bber": 29325,
  "electoral": 6092,
  "doomed": 20076,
  "alejandro": 16810,
  "rubber": 8903,
  "fortress": 7841,
  "sinclair": 11881,
  "ordeal": 23304,
  "accommodate": 8752,
  "expo": 16258,
  "probe": 15113,
  "parana": 28383,
  "##ils": 12146,
  "tuna": 24799,
  "pill": 17357,
  "abortion": 11324,
  "jensen": 14857,
  "[unused892]": 897,
  "virtue": 11870,
  "benefits": 6666,
  "tears": 4000,
  "##pie": 14756,
  "fall": 2991,
  "psychology": 6825,
  "ninth": 6619,
  "dana": 11271,
  "vibrating": 24987,
  "lair": 21039,
  "scholarly": 12683,
  "duet": 11979,
  "##nius": 20447,
  "switch": 6942,
  "\u10d3": 1441,
  "tq": 28816,
  "##nies": 15580,
  "##see": 19763,
  "[unused584]": 589,
  "besieged": 17923,
  "##chal": 18598,
  "##rya": 20444,
  "ecosystems": 20440,
  "vacant": 10030,
  "[unused545]": 550,
  "consecrated": 12299,
  "cornerback": 26857,
  "reorganization": 17118,
  "auditorium": 11448,
  "##inium": 27585,
  "saber": 25653,
  "reformation": 13708,
  "cas": 25222,
  "##ur": 3126,
  "fourier": 26899,
  "loads": 15665,
  "##\u8fb6": 30482,
  "scenario": 11967,
  "##ns": 3619,
  "sob": 17540,
  "suppliers": 20141,
  "clark": 5215,
  "unlock": 19829,
  "\u0562": 1220,
  "challenged": 8315,
  "bonaparte": 20830,
  "##acing": 26217,
  "1917": 4585,
  "ribs": 10335,
  "continuing": 5719,
  "\u5bbf": 1826,
  "##gara": 24864,
  "renal": 25125,
  "##kumar": 18494,
  "moreover": 9308,
  "lear": 26511,
  "tehsil": 20751,
  "anton": 9865,
  "promenade": 26815,
  "smiles": 8451,
  "##fe": 7959,
  "confessed": 14312,
  "\u05be": 1240,
  "[unused336]": 341,
  "vienna": 6004,
  "fairchild": 24258,
  "exeter": 12869,
  "classrooms": 12463,
  "wizard": 10276,
  "##bank": 9299,
  "experience": 3325,
  "bedrock": 28272,
  "reigns": 23481,
  "culture": 3226,
  "abundant": 12990,
  "sexual": 4424,
  "divisional": 14167,
  "total": 2561,
  "rejoin": 25261,
  "exotic": 12564,
  "\u2093": 1563,
  "##emi": 23238,
  "constitutional": 6543,
  "casting": 9179,
  "interfere": 15115,
  "freshly": 20229,
  "##ators": 18926,
  "\u05dc": 1253,
  "grab": 6723,
  "factual": 25854,
  "knowing": 4209,
  "\u0bb3": 1393,
  "devon": 7614,
  "##ths": 26830,
  "##hope": 26441,
  "[unused210]": 215,
  "\u014b": 1106,
  "rhine": 10950,
  "herr": 23506,
  "341": 28358,
  "1745": 21809,
  "font": 15489,
  "##yi": 10139,
  "loved": 3866,
  "commission": 3222,
  "trusting": 19836,
  "intense": 6387,
  "\u4f8d": 1765,
  "[unused849]": 854,
  "warship": 21905,
  "benito": 23595,
  "snarled": 15022,
  "##n": 2078,
  "line": 2240,
  "##ule": 9307,
  "duane": 27319,
  "r": 1054,
  "[unused678]": 683,
  "##encies": 15266,
  "nineteenth": 9137,
  "curt": 20099,
  "nakamura": 23981,
  "brewery": 12161,
  "##etched": 29574,
  "f1": 20069,
  "geoffrey": 11023,
  "situ": 26179,
  "revelation": 11449,
  "projectile": 25921,
  "##ila": 11733,
  "adjustment": 19037,
  "1900s": 16430,
  "flock": 19311,
  "melodic": 17187,
  "perceived": 8690,
  "legged": 15817,
  "information": 2592,
  "tracking": 9651,
  "##olio": 29401,
  "juniper": 29425,
  "##qing": 19784,
  "conversations": 11450,
  "##\u2010": 30048,
  "priority": 9470,
  "1896": 6306,
  "##gaon": 27073,
  "fever": 9016,
  "novella": 20674,
  "##kt": 25509,
  "signifies": 27353,
  "reclaim": 24104,
  "\u30ef": 1736,
  "zoology": 22405,
  "##meo": 26247,
  "[unused432]": 437,
  "eh": 15501,
  "feral": 18993,
  "walking": 3788,
  "polish": 3907,
  "recover": 8980,
  "applicable": 12711,
  "harald": 20966,
  "knicks": 27817,
  "sunderland": 15518,
  "confiscated": 17182,
  "mood": 6888,
  "##heard": 26362,
  "\u6f22": 1904,
  "marlins": 27055,
  "installment": 18932,
  "rounding": 26939,
  "anthropology": 12795,
  "sofie": 26359,
  "pornography": 19378,
  "##rber": 20473,
  "supply": 4425,
  "leeds": 7873,
  "supplement": 12448,
  "##uming": 24270,
  "obtaining": 11381,
  "norse": 15342,
  "36": 4029,
  "aggressive": 9376,
  "ideological": 17859,
  "plaintiff": 20579,
  "b": 1038,
  "markets": 6089,
  "##aged": 18655,
  "experiences": 6322,
  "custody": 9968,
  "vogue": 17734,
  "\u592b": 1813,
  "tunisia": 13437,
  "header": 20346,
  "plates": 7766,
  "wee": 16776,
  "##hta": 22893,
  "##\u09ad": 29905,
  "unicef": 29073,
  "temperate": 16868,
  "hitch": 27738,
  "spots": 7516,
  "theme": 4323,
  "##placed": 22829,
  "##pre": 28139,
  "##nova": 13455,
  "demanding": 9694,
  "[unused770]": 775,
  "tolkien": 23602,
  "letter": 3661,
  "penitentiary": 29569,
  "##mology": 20570,
  "guessed": 11445,
  "##rno": 19139,
  "\u5b87": 1819,
  "lao": 18805,
  "##standing": 24911,
  "opponent": 7116,
  "pavement": 14271,
  "freddy": 19343,
  "linked": 5799,
  "month": 3204,
  "attributes": 12332,
  "##diment": 21341,
  "##\u98a8": 30503,
  "blackmail": 25044,
  "installed": 5361,
  "1711": 28455,
  "mocking": 19545,
  "eager": 9461,
  "tod": 28681,
  "ballistic": 19630,
  "margaret": 5545,
  "serving": 3529,
  "integers": 24028,
  "##wed": 15557,
  "cavaliers": 25096,
  "snapping": 15790,
  "tails": 17448,
  "[unused13]": 14,
  "nomination": 6488,
  "georgian": 9166,
  "##stones": 29423,
  "count": 4175,
  "stunt": 15412,
  "##ri": 3089,
  "relocate": 20102,
  "percival": 27832,
  "essentially": 7687,
  "##\u85e4": 30470,
  "promotion": 4712,
  "hounds": 27772,
  "bargain": 17113,
  "sneaking": 20727,
  "o": 1051,
  "winston": 10180,
  "casually": 13217,
  "pairing": 22778,
  "fu": 11865,
  "predecessor": 8646,
  "sumo": 28193,
  "flip": 11238,
  "add": 5587,
  "maestro": 25270,
  "##\u0440": 16856,
  "chapels": 24130,
  "lausanne": 22256,
  "[unused221]": 226,
  "bernie": 15941,
  "slack": 19840,
  "mute": 20101,
  "950": 20317,
  "frenchman": 26529,
  "##ental": 21050,
  "russia": 3607,
  "vocalist": 8032,
  "sized": 7451,
  "nucleus": 13502,
  "nl": 17953,
  "1850s": 16488,
  "royalist": 20796,
  "audience": 4378,
  "authored": 8786,
  "supplying": 17731,
  "genome": 13458,
  "towing": 28379,
  "shadow": 5192,
  "regional": 3164,
  "abandon": 10824,
  "tobin": 28096,
  "agencies": 6736,
  "1660": 17954,
  "[unused52]": 53,
  "enable": 9585,
  "##ingen": 15542,
  "dye": 18554,
  "publication": 4772,
  "brigham": 22727,
  "rockefeller": 16696,
  "move": 2693,
  "urban": 3923,
  "hickory": 28158,
  "enrique": 15769,
  "##\u9053": 30483,
  "monster": 6071,
  "novelty": 21160,
  "deprivation": 29516,
  "replica": 15059,
  "##\u03c6": 29736,
  "gaulle": 28724,
  "conscious": 9715,
  "baronet": 8693,
  "##lvis": 28530,
  "turnpike": 17116,
  "prevalence": 20272,
  "tactic": 19717,
  "election": 2602,
  "cl": 18856,
  "##\u1d2c": 30026,
  "51st": 26017,
  "liquidation": 28763,
  "loosen": 29476,
  "carleton": 22273,
  "lyon": 10241,
  "friars": 24037,
  "\u6708": 1872,
  "##\u22121": 27944,
  "boil": 26077,
  "whorls": 25637,
  "huff": 21301,
  "galloway": 22372,
  "##lists": 27103,
  "montevideo": 22460,
  "##ground": 16365,
  "clicking": 22042,
  "flawed": 25077,
  "##drich": 23335,
  "fuss": 28554,
  "lower": 2896,
  "##\u043a\u0430": 28598,
  "macleod": 23075,
  "##work": 6198,
  "skin": 3096,
  "[unused875]": 880,
  "pianos": 27864,
  "##gaard": 18839,
  "##\u05be": 29787,
  "66": 5764,
  "rebounds": 11049,
  "nation": 3842,
  "\u0627": 1270,
  "temperance": 23372,
  "##nting": 24360,
  "limerick": 15679,
  "tissues": 14095,
  "mori": 22993,
  "latter": 3732,
  "##\u044c": 23742,
  "nemesis": 21363,
  "reviewed": 8182,
  "\u3092": 1690,
  "lark": 23404,
  "[unused579]": 584,
  "amnesty": 16154,
  "accusations": 13519,
  "\u30ea": 1732,
  "ours": 14635,
  "baptised": 28798,
  "booked": 17414,
  "sentai": 28650,
  "devastation": 25594,
  "##turn": 22299,
  "##tting": 13027,
  "fusiliers": 27207,
  "cables": 15196,
  "painted": 4993,
  "midfielder": 8850,
  "##rgh": 27172,
  "unmanned": 24075,
  "vaughan": 14461,
  "confirmed": 4484,
  "boxers": 18508,
  "1910s": 28088,
  "orbiting": 26472,
  "spurs": 18205,
  "hara": 18820,
  "##onate": 21149,
  "electrification": 23679,
  "francisco": 3799,
  "##otype": 26305,
  "catastrophe": 25539,
  "mala": 28935,
  "commentaries": 21241,
  "offspring": 13195,
  "mps": 12616,
  "curses": 23897,
  "ctv": 28720,
  "kingston": 9803,
  "354": 27878,
  "omitted": 16647,
  "[unused808]": 813,
  "heading": 5825,
  "cassie": 8869,
  "##load": 11066,
  "wash": 9378,
  "tex": 16060,
  "buffer": 17698,
  "commence": 22825,
  "wednesday": 9317,
  "prize": 3396,
  "physiology": 16127,
  "gr": 24665,
  "sur": 7505,
  "harbour": 7440,
  "\u116a": 1476,
  "##lace": 19217,
  "wings": 4777,
  "pregnant": 6875,
  "dismay": 20006,
  "##\u0444": 29749,
  "cyrillic": 15522,
  "\u00a2": 1068,
  "blinding": 19709,
  "trainee": 26758,
  "arteries": 28915,
  "underwent": 9601,
  "gael": 28151,
  "browser": 16602,
  "pollution": 10796,
  "hooves": 28399,
  "clearly": 4415,
  "##\u5e74": 30366,
  "tower": 3578,
  "hunting": 5933,
  "##\u0f56": 29967,
  "minute": 3371,
  "##bic": 13592,
  "##ron": 4948,
  "##oxide": 28479,
  "##ras": 8180,
  "370": 16444,
  "testify": 19919,
  "gestures": 18327,
  "strode": 11885,
  "dyke": 22212,
  "malta": 9933,
  "##rka": 22379,
  "##gi": 5856,
  "\u043e": 1193,
  "together": 2362,
  "learning": 4083,
  "##dorf": 11592,
  "ld": 25510,
  "nme": 23770,
  "sought": 4912,
  "amazing": 6429,
  "philosophical": 9569,
  "emphasizing": 22671,
  "##izzly": 29266,
  "relief": 4335,
  "terrifying": 17082,
  "sterile": 25403,
  "defunct": 11984,
  "##elis": 29282,
  "##pg": 26952,
  "##stone": 9221,
  "kilometer": 20595,
  "spider": 6804,
  "2001": 2541,
  "##rth": 15265,
  "49ers": 18156,
  "mississippi": 5900,
  "horses": 5194,
  "warlord": 16579,
  "extraction": 14676,
  "adaptation": 6789,
  "lawyers": 9559,
  "exhibited": 8176,
  "enormous": 8216,
  "mateo": 19327,
  "key": 3145,
  "clones": 24418,
  "##sten": 16173,
  "squadrons": 11435,
  "funny": 6057,
  "thematic": 23539,
  "florence": 7701,
  "miniature": 12973,
  "romance": 7472,
  "prisoner": 7267,
  "armagh": 24678,
  "marina": 9985,
  "romanesque": 17135,
  "aristocratic": 19774,
  "faults": 19399,
  "yields": 16189,
  "caress": 21753,
  "bengal": 8191,
  "usaf": 18531,
  "yemen": 13968,
  "tourists": 9045,
  "##ressed": 16119,
  "##phus": 25255,
  "##sden": 27903,
  "antibody": 27781,
  "##ec": 8586,
  "##ately": 28239,
  "##islav": 19834,
  "229": 22777,
  "##nte": 10111,
  "payload": 18093,
  "##mc": 12458,
  "vera": 12297,
  "slipping": 11426,
  "##\u2011": 30049,
  "oskar": 28626,
  "crusaders": 18831,
  "##iere": 21253,
  "tilting": 21788,
  "outfits": 22054,
  "spends": 15970,
  "meng": 27955,
  "detached": 12230,
  "abandoning": 19816,
  "kneeling": 16916,
  "stunned": 9860,
  "stade": 15649,
  "materialized": 27075,
  "insurrection": 27860,
  "##due": 20041,
  "lipstick": 22359,
  "##while": 19927,
  "##l": 2140,
  "youths": 19634,
  "##ings": 8613,
  "bad": 2919,
  "##ams": 13596,
  "easter": 10957,
  "responsibility": 5368,
  "emphasis": 7902,
  "circles": 7925,
  "bowl": 4605,
  "dramas": 16547,
  "season": 2161,
  "spat": 14690,
  "59": 5354,
  "##tlement": 24007,
  "adapt": 15581,
  "champion": 3410,
  "##phile": 24862,
  "braid": 24148,
  "del": 3972,
  "326": 28188,
  "happening": 6230,
  "scheduling": 19940,
  "brothers": 3428,
  "habit": 10427,
  "moscow": 4924,
  "university": 2118,
  "##\u5bfa": 30353,
  "##utz": 20267,
  "cuisine": 12846,
  "pools": 12679,
  "spoken": 5287,
  "lifted": 4196,
  "radiation": 8249,
  "awakened": 20256,
  "mayors": 21941,
  "\u56d7": 1797,
  "113": 12104,
  "raven": 10000,
  "##tty": 15353,
  "being": 2108,
  "##dek": 24463,
  "alumni": 9441,
  "crazy": 4689,
  "cradled": 23774,
  "##\u674e": 30403,
  "room": 2282,
  "##heads": 13038,
  "##cript": 23235,
  "qualifier": 10981,
  "spontaneously": 27491,
  "##quin": 12519,
  "bet": 6655,
  "demanded": 6303,
  "##\u30b7": 30232,
  "karin": 24537,
  "warring": 28509,
  "[unused283]": 288,
  "##ment": 3672,
  "starved": 26042,
  "276": 25113,
  "enroll": 25612,
  "laughed": 4191,
  "milos": 26038,
  "visions": 12018,
  "feminine": 12320,
  "octave": 21817,
  "jury": 6467,
  "##wl": 13668,
  "##glass": 15621,
  "meyrick": 15228,
  "##hering": 22658,
  "generic": 12391,
  "helpless": 13346,
  "##tom": 20389,
  "happen": 4148,
  "panchayat": 20079,
  "##wski": 10344,
  "ked": 16135,
  "\u2ebc": 1633,
  "##tructing": 26310,
  "remembering": 10397,
  "emergence": 14053,
  "note": 3602,
  "##folding": 21508,
  "stuck": 5881,
  "##lar": 8017,
  "##\u0e2a": 29956,
  "[unused601]": 606,
  "kilometre": 13214,
  "archeological": 23005,
  "##chin": 17231,
  "sham": 25850,
  "##pire": 20781,
  "ny": 6396,
  "ic": 24582,
  "benz": 17770,
  "##lou": 23743,
  "champagne": 12327,
  "263": 25246,
  "ca": 6187,
  "fitted": 7130,
  "dmitri": 28316,
  "expense": 10961,
  "catholic": 3234,
  "mastering": 11495,
  "zhu": 15503,
  "emmy": 10096,
  "]": 1033,
  "\u0b9a": 1383,
  "repetition": 23318,
  "passes": 5235,
  "##vara": 24516,
  "arsenic": 29596,
  "regrets": 23161,
  "blog": 9927,
  "##orra": 24285,
  "kali": 19924,
  "articles": 4790,
  "leah": 14188,
  "elevated": 8319,
  "joker": 19318,
  "illuminated": 14640,
  "container": 11661,
  "alarmed": 19260,
  "ella": 11713,
  "bar": 3347,
  "##\u4ec1": 30284,
  "##nis": 8977,
  "marylebone": 28537,
  "clasp": 23465,
  "terry": 6609,
  "pamphlets": 24752,
  "enoch": 28178,
  "editions": 6572,
  "psalms": 26130,
  "guess": 3984,
  "loneliness": 20334,
  "##ssion": 28231,
  "##farlane": 23511,
  "promotional": 10319,
  "honoring": 21494,
  "gaping": 21226,
  "visas": 24487,
  "beverage": 19645,
  "seeks": 11014,
  "state": 2110,
  "entirety": 15700,
  "guardian": 6697,
  "##\u093e": 29876,
  "##ver": 6299,
  "vector": 9207,
  "campuses": 13696,
  "##\u4ecb": 30285,
  "iberian": 21988,
  "##rsten": 19020,
  "fibers": 16662,
  "##graph": 14413,
  "cheyenne": 17778,
  "##ses": 8583,
  "nmi": 22484,
  "\u9ad8": 1981,
  "radar": 7217,
  "##23": 21926,
  "mfa": 26913,
  "curb": 13730,
  "best": 2190,
  "##\u3078": 30201,
  "waiting": 3403,
  "sniffing": 27646,
  "listing": 10328,
  "abnormal": 19470,
  "flushed": 12953,
  "##jn": 22895,
  "norman": 5879,
  "purse": 8722,
  "[unused962]": 967,
  "copies": 4809,
  "investigators": 14766,
  "praising": 15838,
  "##tur": 20689,
  "dustin": 24337,
  "gambling": 12219,
  "bodies": 4230,
  "categorized": 20427,
  "farm": 3888,
  "wink": 16837,
  "shortly": 3859,
  "leafs": 21349,
  "willoughby": 24919,
  "congratulations": 23156,
  "hd": 10751,
  "objectives": 11100,
  "##\u0153": 29674,
  "[unused764]": 769,
  "##sies": 14625,
  "gale": 14554,
  "nrhp": 22424,
  "ultra": 11087,
  "hacked": 28719,
  "327": 28469,
  "peering": 16740,
  "\u0639": 1288,
  "dub": 12931,
  "associates": 9228,
  "gleamed": 25224,
  "##oku": 21940,
  "windy": 27370,
  "ski": 8301,
  "\u0580": 1237,
  "measures": 5761,
  "character": 2839,
  "\u0f44": 1427,
  "phosphorus": 25473,
  "anders": 15387,
  "spirit": 4382,
  "matching": 9844,
  "##lik": 18393,
  "pollard": 25513,
  "occasion": 6686,
  "dangling": 18737,
  "years": 2086,
  "##life": 15509,
  "##elle": 14774,
  "oak": 6116,
  "wouldn": 2876,
  "resonance": 17011,
  "olympiad": 25225,
  "\u1da0": 1512,
  "maintained": 5224,
  "glowed": 16497,
  "navarro": 23524,
  "alleging": 23294,
  "##nais": 28020,
  "pain": 3255,
  "kicked": 6476,
  "commemoration": 22377,
  "[unused106]": 111,
  "justin": 6796,
  "sophia": 9665,
  "enfield": 25821,
  "lehman": 28444,
  "guests": 6368,
  "crotch": 28629,
  "barefoot": 22985,
  "\u00b6": 1086,
  "ufo": 24321,
  "darting": 24567,
  "167": 16785,
  "guitarists": 28523,
  "flexed": 24244,
  "feudal": 16708,
  "apt": 26794,
  "chocolate": 7967,
  "kicker": 22652,
  "##mussen": 29134,
  "communists": 13009,
  "corrosion": 24625,
  "##orno": 26295,
  "##chman": 19944,
  "remains": 3464,
  "opportunity": 4495,
  "\u30d5": 1720,
  "mont": 18318,
  "##\u306b": 30194,
  "opined": 26084,
  "sect": 17831,
  "##ille": 10484,
  "##\u9ad8": 30507,
  "landowner": 20270,
  "honoured": 15546,
  "consistently": 10862,
  "latitude": 15250,
  "empire": 3400,
  "pleas": 22512,
  "ivan": 7332,
  "crises": 25332,
  "prayed": 14283,
  "##berry": 9766,
  "dean": 4670,
  "twentieth": 9086,
  "interacting": 21935,
  "locally": 7246,
  "purcell": 26429,
  "switched": 7237,
  "##ke": 3489,
  "shave": 27545,
  "mediated": 19872,
  "drifted": 10070,
  "\u03b3": 1157,
  "274": 25586,
  "huron": 21899,
  "rural": 3541,
  "##nzo": 25650,
  "policeman": 14460,
  "[unused947]": 952,
  "rosie": 15820,
  "georg": 12062,
  "sessions": 6521,
  "universities": 5534,
  "concrete": 5509,
  "odyssey": 18735,
  "calder": 19347,
  "vague": 13727,
  "burlington": 15552,
  "placement": 11073,
  "organised": 7362,
  "##anial": 27532,
  "labyrinth": 24239,
  "##rave": 22401,
  "harry": 4302,
  "##boro": 12691,
  "frankfurt": 9780,
  "##lity": 18605,
  "liu": 8607,
  "laird": 21964,
  "crusade": 16282,
  "stallion": 19122,
  "##mind": 23356,
  "##so": 6499,
  "breaststroke": 28164,
  "priesthood": 17911,
  "immortal": 12147,
  "device": 5080,
  "owners": 5608,
  "squads": 20191,
  "\u0459": 1215,
  "coveted": 28821,
  "dockyard": 24874,
  "[unused549]": 554,
  "linguist": 22978,
  "forwards": 19390,
  "##holder": 14528,
  "diplomatic": 8041,
  "advise": 18012,
  "skirts": 18184,
  "##duk": 28351,
  "judaism": 13725,
  "pixel": 22138,
  "yorkshire": 7018,
  "monroe": 9747,
  "##lars": 28695,
  "arlington": 13929,
  "jd": 26219,
  "disease": 4295,
  "cortex": 17132,
  "roast": 25043,
  "manufactured": 7609,
  "lets": 11082,
  "telegraph": 10013,
  "##unced": 22392,
  "choke": 16769,
  "toy": 9121,
  "calcutta": 13419,
  "moist": 11052,
  "transmitting": 23820,
  "though": 2295,
  "##gned": 19225,
  "1869": 7845,
  "##\u56fd": 30325,
  "##cular": 15431,
  "asbestos": 29191,
  "conserved": 19995,
  "restaurants": 7884,
  "solitude": 22560,
  "plantations": 14979,
  "quoted": 9339,
  "gradual": 16612,
  "shepard": 22189,
  "##cc": 9468,
  "##achal": 24409,
  "band": 2316,
  "[unused184]": 189,
  "##\u9577": 30493,
  "##sko": 21590,
  "dare": 8108,
  "shine": 12342,
  "naia": 29511,
  "##adt": 18727,
  "##\u8eca": 30480,
  "vows": 16495,
  "collaborating": 20295,
  "xv": 15566,
  "trickle": 26027,
  "mcgrath": 23220,
  "completely": 3294,
  "controls": 7711,
  "tapestry": 25213,
  "euros": 19329,
  "assist": 6509,
  "\u0679": 1301,
  "conan": 16608,
  "hellenic": 23122,
  "nepali": 23418,
  "coa": 28155,
  "accommodated": 28959,
  "##mt": 20492,
  "ft": 3027,
  "tr": 19817,
  "282": 26267,
  "telescope": 12772,
  "bauer": 17838,
  "textual": 25304,
  "claws": 10702,
  "meters": 5563,
  "parlor": 18746,
  "vibrated": 27801,
  "\u0939": 1339,
  "demands": 7670,
  "##with": 24415,
  "descend": 18855,
  "filters": 17736,
  "\u304b": 1651,
  "athena": 21880,
  "##say": 24322,
  "kitchens": 26051,
  "separates": 18600,
  "wildcats": 19495,
  "snarl": 24845,
  "andres": 15614,
  "screens": 12117,
  "comment": 7615,
  "handle": 5047,
  "boss": 5795,
  "glucose": 18423,
  "fined": 16981,
  "barbie": 22635,
  "##hiff": 25798,
  "politely": 16954,
  "bulk": 9625,
  "regina": 12512,
  "##estinal": 19126,
  "[unused266]": 271,
  "lankan": 16159,
  "interviews": 7636,
  "##verted": 26686,
  "turtles": 16489,
  "interrupted": 7153,
  "collector": 10018,
  "cm": 4642,
  "roughly": 5560,
  "##\u4e0d": 30270,
  "vicente": 17280,
  "##\u82b1": 30466,
  "buddha": 11903,
  "##oslav": 23085,
  "fashionable": 19964,
  "unclear": 10599,
  "##edes": 18352,
  "sis": 24761,
  "fowler": 14990,
  "##ignon": 24796,
  "macdonald": 10406,
  "traders": 13066,
  "puget": 27879,
  "aiden": 15086,
  "successful": 3144,
  "##\u0f62": 29970,
  "intercourse": 23198,
  "intrinsic": 23807,
  "ee": 25212,
  "lucie": 28831,
  "campaigning": 18524,
  "##hosh": 26643,
  "1813": 12169,
  "cough": 19340,
  "alerted": 22333,
  "ri": 15544,
  "##combe": 14149,
  "states": 2163,
  "grandson": 7631,
  "##hold": 12640,
  "1682": 29478,
  "disguise": 14249,
  "##\u1100": 29991,
  "\u0644": 1294,
  "##\u116d": 30013,
  "jay": 6108,
  "##ran": 5521,
  "constituent": 13794,
  "remembers": 17749,
  "cassette": 13903,
  "multinational": 20584,
  "##oya": 18232,
  "fluctuations": 28892,
  "mercy": 8673,
  "regimental": 17604,
  "haunting": 20161,
  "[unused721]": 726,
  "##athi": 25457,
  "dragons": 8626,
  "[unused791]": 796,
  "fault": 6346,
  "##cini": 27085,
  "shifters": 21537,
  "##egorical": 27203,
  "establishing": 7411,
  "dusk": 18406,
  "bases": 7888,
  "centro": 18120,
  "santo": 11685,
  "playstation": 9160,
  "whaling": 23687,
  "days": 2420,
  "torn": 7950,
  "bikes": 18105,
  "experiencing": 13417,
  "approximation": 20167,
  "rna": 12987,
  "##rain": 21166,
  "approved": 4844,
  "patriotic": 14314,
  "##rte": 19731,
  "richest": 18429,
  "espionage": 21003,
  "educate": 16957,
  "bucket": 13610,
  "vice": 3580,
  "##stra\u00dfe": 24967,
  "reeling": 28515,
  "productive": 13318,
  "inorganic": 28256,
  "briefcase": 21793,
  "scar": 11228,
  "\u0433": 1183,
  "creature": 6492,
  "ordnance": 14445,
  "##dock": 14647,
  "hooper": 23717,
  "bowler": 14999,
  "pear": 28253,
  "##\u5f18": 30369,
  "##hun": 17157,
  "bite": 6805,
  "tremble": 20627,
  "task": 4708,
  "byte": 24880,
  "chasing": 11777,
  "alta": 23647,
  "card": 4003,
  "richard": 2957,
  "##titles": 27430,
  "chants": 29534,
  "anomaly": 28685,
  "photograph": 9982,
  "weddings": 20429,
  "kyoto": 15008,
  "80s": 16002,
  "aurora": 13158,
  "recess": 28290,
  "mitch": 11857,
  "##well": 4381,
  "purposely": 24680,
  "barrow": 15355,
  "cinematographer": 19245,
  "\u4e00": 1740,
  "wes": 14008,
  "hate": 5223,
  "fifth": 3587,
  "henley": 20768,
  "gas": 3806,
  "described": 2649,
  "galen": 21062,
  "##the": 10760,
  "nominee": 9773,
  "substitutes": 29200,
  "ud": 20904,
  "{": 1063,
  "##shu": 14235,
  "deciding": 10561,
  "##can": 9336,
  "rifle": 5883,
  "boiled": 17020,
  "adjacent": 5516,
  "##dion": 29573,
  "##puted": 29462,
  "reducing": 8161,
  "\u0964": 1344,
  "ist": 21541,
  "dealings": 24069,
  "patch": 8983,
  "259": 25191,
  "11th": 6252,
  "leicester": 11258,
  "##\u27e9": 30156,
  "##fed": 25031,
  "[unused213]": 218,
  "arson": 24912,
  "publicly": 7271,
  "behaviour": 9164,
  "remotely": 19512,
  "acute": 11325,
  "tugs": 29306,
  "##bre": 13578,
  "##otic": 20214,
  "ali": 4862,
  "guitarist": 5990,
  "emi": 12495,
  "signs": 5751,
  "##16": 16048,
  "protector": 16167,
  "##hosis": 25229,
  "currents": 14731,
  "[unused869]": 874,
  "minimum": 6263,
  "chimed": 27460,
  "##use": 8557,
  "helene": 20149,
  "locomotives": 7830,
  "sexes": 21024,
  "galactic": 21375,
  "dialed": 21300,
  "sparse": 20288,
  "nevertheless": 6600,
  "sydney": 3994,
  "coptic": 27672,
  "discussing": 10537,
  "wilmington": 17025,
  "strapped": 18019,
  "kia": 27005,
  "enabled": 9124,
  "tucking": 25056,
  "annual": 3296,
  "alistair": 23752,
  "bruce": 5503,
  "presided": 15506,
  "sin": 8254,
  "battle": 2645,
  "costa": 6849,
  "premiership": 11264,
  "dd": 20315,
  "##iating": 15370,
  "##iensis": 27806,
  "##\u3044": 30173,
  "experiment": 7551,
  "silently": 8601,
  "[unused312]": 317,
  "grumbled": 17030,
  "render": 17552,
  "peculiar": 14099,
  "fairy": 8867,
  "visibility": 16476,
  "##uid": 21272,
  "##rbin": 27366,
  "internship": 22676,
  "manly": 19385,
  "##bib": 28065,
  "##\u5ca1": 30358,
  "crawling": 15927,
  "david": 2585,
  "##lwyn": 29287,
  "closest": 7541,
  "##\u66f8": 30397,
  "kill": 3102,
  "bowled": 19831,
  "varies": 9783,
  "trunk": 8260,
  "watershed": 12547,
  "[unused541]": 546,
  "humane": 23369,
  "conclusion": 7091,
  "##cats": 19588,
  "##vid": 17258,
  "supervising": 21238,
  "propagation": 20594,
  "pines": 17527,
  "gaze": 3657,
  "enslaved": 22216,
  "log": 8833,
  "barges": 27712,
  "##4": 2549,
  "salvatore": 17485,
  "mutually": 20271,
  "##ians": 7066,
  "il": 6335,
  "handicap": 15822,
  "shepherd": 11133,
  "latvian": 14698,
  "patents": 13979,
  "apprehension": 25809,
  "goldman": 17765,
  "##hore": 16892,
  "##tish": 24788,
  "tb": 26419,
  "##\u067e": 29839,
  "ample": 20851,
  "##\u30f3": 30263,
  "##thorpe": 22398,
  "modified": 6310,
  "becca": 22140,
  "confidently": 28415,
  "snails": 13482,
  "combat": 4337,
  "sir": 2909,
  "cobb": 17176,
  "contra": 24528,
  "taped": 19374,
  "pasadena": 18880,
  "bangs": 28490,
  "ceo": 5766,
  "##usa": 10383,
  "nile": 15179,
  "cornelius": 17354,
  "macedonian": 13037,
  "##dity": 25469,
  "##\u30b1": 30229,
  "halls": 9873,
  "marquez": 27320,
  "ethiopia": 11154,
  "\u300f": 1644,
  "google": 8224,
  "tick": 16356,
  "##\u1d9c": 30046,
  "\u4ee3": 1760,
  "##dian": 11692,
  "turmoil": 17930,
  "[unused896]": 901,
  "dolores": 21544,
  "cultural": 3451,
  "words": 2616,
  "cambridge": 4729,
  "00": 4002,
  "[unused265]": 270,
  "woolf": 29572,
  "##era": 6906,
  "protestant": 8330,
  "1680": 24621,
  "[unused769]": 774,
  "\u2116": 1578,
  "such": 2107,
  "weep": 27874,
  "suspicious": 10027,
  "##dled": 20043,
  "unfair": 15571,
  "susie": 23917,
  "digit": 15340,
  "eden": 10267,
  "jaguar": 16490,
  "##lman": 12624,
  "superintendent": 9133,
  "jing": 21536,
  "##bag": 16078,
  "##gno": 26745,
  "1979": 3245,
  "assumptions": 17568,
  "##ceptive": 28687,
  "1960s": 4120,
  "precursor": 14988,
  "popularized": 20339,
  "gus": 12670,
  "##\u2092": 30091,
  "convenient": 14057,
  "gold": 2751,
  "physics": 5584,
  "breaths": 12938,
  "08": 5511,
  "##\u11b8": 30024,
  "disused": 26958,
  "[unused967]": 972,
  "schleswig": 21173,
  "[unused105]": 110,
  "##gger": 13327,
  "parents": 3008,
  "mikhail": 11318,
  "scientific": 4045,
  "ulster": 11059,
  "claiming": 6815,
  "estonia": 10692,
  "stabilize": 27790,
  "jonah": 15617,
  "circus": 9661,
  "positive": 3893,
  "knots": 9439,
  "crushed": 10560,
  "gardner": 11764,
  "[unused793]": 798,
  "##dron": 19440,
  "skulls": 21542,
  "resolutions": 18853,
  "horrible": 9202,
  "##burn": 8022,
  "campbell": 6063,
  "##kra": 22272,
  "willy": 16172,
  "membership": 5779,
  "peter": 2848,
  "overlapping": 20567,
  "fiance": 19154,
  "fireplace": 13788,
  "palatinate": 18990,
  "stationed": 8895,
  "as": 2004,
  "complaints": 10821,
  "hatch": 11300,
  "dyed": 28432,
  "^": 1034,
  "foxes": 24623,
  "dna": 6064,
  "302": 22060,
  "##ctor": 16761,
  "purchasing": 13131,
  "##missible": 26770,
  "monterrey": 26843,
  "depicting": 10775,
  "blank": 8744,
  "jena": 27510,
  "ourselves": 9731,
  "ineffective": 20694,
  "disturb": 22995,
  "##dp": 18927,
  "\u201d": 1524,
  "her": 2014,
  "writers": 4898,
  "##layer": 24314,
  "winery": 23910,
  "##upt": 29441,
  "snail": 10879,
  "carthage": 21959,
  "labeled": 12599,
  "paso": 17161,
  "clicks": 29225,
  "tatum": 25913,
  "redevelopment": 15582,
  "helm": 16254,
  "anand": 18887,
  "catalogue": 10161,
  "similarities": 12319,
  "##slow": 26338,
  "[unused533]": 538,
  "andre": 7213,
  "heron": 22914,
  "indicator": 17245,
  "terra": 14403,
  "baseball": 3598,
  "coasts": 20266,
  "glided": 26936,
  "santos": 11053,
  "##ad": 4215,
  "##game": 16650,
  "##form": 14192,
  "##ites": 7616,
  "chow": 20209,
  "kaufman": 23699,
  "guthrie": 19952,
  "##vers": 14028,
  "switches": 15924,
  "visitor": 10367,
  "\u30c3": 1711,
  "##tres": 19168,
  "proportional": 14267,
  "peeling": 28241,
  "building": 2311,
  "buccaneers": 21629,
  "284": 26871,
  "##ster": 6238,
  "grooves": 25880,
  "migrant": 20731,
  "ivanov": 26333,
  "gases": 15865,
  "\u0927": 1326,
  "dramatic": 6918,
  "[unused8]": 9,
  "##kins": 14322,
  "attending": 7052,
  "doubtful": 21888,
  "sofa": 10682,
  "drought": 14734,
  "##eding": 17819,
  "chin": 5413,
  "oversight": 15709,
  "times": 2335,
  "interior": 4592,
  "mandy": 18193,
  "050": 28714,
  "grew": 3473,
  "oversee": 17467,
  "making": 2437,
  "moment": 2617,
  "overtime": 12253,
  "mesopotamia": 25889,
  "530": 23523,
  "yards": 4210,
  "ari": 10488,
  "1887": 6837,
  "intended": 3832,
  "formal": 5337,
  "##orous": 25373,
  "hazel": 14015,
  "##\u898b": 30474,
  "assassinate": 25683,
  "massacre": 9288,
  "sockets": 27540,
  "lust": 11516,
  "greatly": 6551,
  "numbering": 15200,
  "gregor": 16973,
  "##matic": 12644,
  "pipeline": 13117,
  "1819": 12552,
  "licking": 17033,
  "2012": 2262,
  "amor": 16095,
  "unpublished": 19106,
  "research": 2470,
  "##iferous": 23930,
  "category": 4696,
  "compose": 17202,
  "clarence": 11805,
  "##fia": 22749,
  "yahoo": 20643,
  "silhouette": 21776,
  "\u0446": 1201,
  "##uting": 20807,
  "##aki": 8978,
  "\u2c7c": 1631,
  "equatorial": 21333,
  "##ating": 5844,
  "acted": 6051,
  "elites": 27021,
  "[unused114]": 119,
  "shotgun": 13305,
  "##sms": 19230,
  "handles": 16024,
  "disney": 6373,
  "phoenix": 6708,
  "jj": 29017,
  "guernsey": 24640,
  "fields": 4249,
  "uk": 2866,
  "freshman": 10452,
  "sediment": 19671,
  "vineyard": 18621,
  "skip": 13558,
  "780": 28601,
  "##hell": 18223,
  "##ecin": 28191,
  "jeffrey": 10799,
  "manufactures": 22027,
  "trip": 4440,
  "##ota": 17287,
  "kendall": 14509,
  "planets": 11358,
  "refrain": 20703,
  "icelandic": 14024,
  "930": 29359,
  "residing": 7154,
  "pinyin": 9973,
  "\u30c4": 1712,
  "will": 2097,
  "##mere": 13759,
  "19": 2539,
  "dun": 24654,
  "feature": 3444,
  "##ren": 7389,
  "serie": 8668,
  "offer": 3749,
  "leaning": 6729,
  "\u0454": 1212,
  "governments": 6867,
  "varying": 9671,
  "1672": 27253,
  "insider": 25297,
  "tornado": 11352,
  "[unused492]": 497,
  "wells": 7051,
  "##rma": 17830,
  "62": 5786,
  "comprising": 9605,
  "[unused646]": 651,
  "weaker": 15863,
  "intrigued": 18896,
  "ornamental": 18200,
  "prequel": 28280,
  "guyana": 18786,
  "terrific": 27547,
  "aimed": 6461,
  "automobiles": 19207,
  "socialist": 6102,
  "##dong": 17679,
  "tending": 25069,
  "eyebrow": 9522,
  "##war": 9028,
  "##haven": 14650,
  "athlete": 8258,
  "endure": 18094,
  "shocking": 16880,
  "pc": 7473,
  "##orescence": 20030,
  "sanders": 12055,
  "ruining": 27853,
  "signatures": 16442,
  "crowds": 12783,
  "wingspan": 9635,
  "cry": 5390,
  "schuster": 24253,
  "exile": 8340,
  "eric": 4388,
  "##uno": 27819,
  "inclined": 13050,
  "purpose": 3800,
  "disdain": 25134,
  "venture": 6957,
  "mer": 21442,
  "convicted": 7979,
  "hill": 2940,
  "##jou": 23099,
  "uzbekistan": 17065,
  "punjab": 9213,
  "wright": 6119,
  "##\u0e22": 29952,
  "reception": 7684,
  "ashford": 26545,
  "lex": 17244,
  "consuming": 15077,
  "##boards": 15271,
  "2011": 2249,
  "gorman": 25693,
  "vibration": 17880,
  "perez": 10730,
  "chapter": 3127,
  "shone": 14707,
  "dependence": 18642,
  "li": 5622,
  "region": 2555,
  "\u02bc": 1146,
  "540": 20263,
  "mediation": 26435,
  "[PAD]": 0,
  "neoclassical": 22657,
  "bentley": 15988,
  "##hiko": 22204,
  "##tas": 10230,
  "evangelist": 24036,
  "rosa": 9508,
  "guns": 4409,
  "malcolm": 8861,
  "climbed": 6589,
  "zoom": 24095,
  "122": 13092,
  "##nified": 25201,
  "extreme": 6034,
  "##rer": 14544,
  "1738": 28009,
  "redeveloped": 28053,
  "be": 2022,
  "entrances": 18084,
  "syrup": 23353,
  "alphabet": 12440,
  "newell": 28052,
  "##uki": 14228,
  "mu": 14163,
  "keepers": 24018,
  "[unused118]": 123,
  "ty": 5939,
  "ang": 17076,
  "harden": 28751,
  "weed": 17901,
  "crows": 21623,
  "percussion": 6333,
  "##chrome": 20366,
  "\u0629": 1272,
  "troopers": 26246,
  "literary": 4706,
  "attack": 2886,
  "\u4e09": 1741,
  "sipped": 17735,
  "##yse": 23274,
  "poorer": 27196,
  "omaha": 12864,
  "##sable": 19150,
  "leaping": 21216,
  "##umb": 25438,
  "passageway": 27336,
  "##kla": 26086,
  "unionist": 17104,
  "circle": 4418,
  "paw": 22195,
  "##isk": 20573,
  "suriname": 25050,
  "##by": 3762,
  "torah": 16297,
  "extent": 6698,
  "##bf": 29292,
  "\u062f": 1278,
  "\u0e2a": 1420,
  "lau": 21360,
  "mansfield": 15352,
  "encounters": 11340,
  "##tub": 28251,
  "1928": 4662,
  "check": 4638,
  "[unused395]": 400,
  "stretches": 14082,
  "belle": 9852,
  "landlord": 18196,
  "[unused570]": 575,
  "seize": 15126,
  "rectory": 24606,
  "sweet": 4086,
  "##y": 2100,
  "leader": 3003,
  "##mont": 9629,
  "contractor": 13666,
  "fictitious": 23577,
  "protestants": 19592,
  "athletics": 6482,
  "cal": 10250,
  "concentrated": 8279,
  "trey": 14826,
  "2018": 2760,
  "tonnes": 11000,
  "##linger": 23101,
  "misunderstood": 28947,
  "veins": 9607,
  "hike": 21857,
  "\u0443": 1198,
  "skeletal": 20415,
  "##app": 29098,
  "tess": 15540,
  "##hang": 18003,
  "twelfth": 11313,
  "disagreements": 23145,
  "defeat": 4154,
  "osborn": 26999,
  "descriptive": 22726,
  "kala": 26209,
  "lash": 25210,
  "madras": 12993,
  "mastery": 26364,
  "one": 2028,
  "##\u0291": 29703,
  "beneath": 4218,
  "seriousness": 27994,
  "garments": 21902,
  "sutton": 11175,
  "discreet": 29321,
  "##wart": 18367,
  "\u539f": 1787,
  "[unused733]": 738,
  "##yla": 23943,
  "cryptic": 26483,
  "wages": 12678,
  "cub": 21987,
  "adolescence": 29101,
  "mathematics": 5597,
  "apocalypse": 16976,
  "minh": 19538,
  "forehead": 6130,
  "arbor": 19679,
  "egan": 27889,
  "##ration": 8156,
  "pulses": 23894,
  "campground": 29144,
  "falsely": 23123,
  "trends": 12878,
  "##nism": 28113,
  "commune": 5715,
  "fcc": 14420,
  "glasses": 7877,
  "divert": 27345,
  "aa": 9779,
  "suite": 7621,
  "sanskrit": 11353,
  "launcher": 22742,
  "##eria": 11610,
  "##\u043e": 14150,
  "##\u0192": 29675,
  "1830": 9500,
  "[unused542]": 547,
  "pleasure": 5165,
  "kahn": 19361,
  "privy": 14452,
  "se": 7367,
  "##ove": 21818,
  "##ssel": 21218,
  "tax": 4171,
  "jagged": 18187,
  "egyptians": 23437,
  "conflicts": 9755,
  "trait": 18275,
  "kiss": 3610,
  "60th": 20928,
  "benoit": 21721,
  "##aday": 28039,
  "oneself": 25763,
  "edwards": 7380,
  "leningrad": 15930,
  "wexford": 23121,
  "john": 2198,
  "arden": 26225,
  "\u0636": 1285,
  "clements": 28572,
  "shit": 4485,
  "sabine": 18578,
  "finger": 4344,
  "surplus": 15726,
  "parliamentary": 5768,
  "plateau": 9814,
  "painful": 9145,
  "phases": 12335,
  "foo": 29379,
  "celtic": 8730,
  "darius": 14861,
  "bribery": 27748,
  "certified": 7378,
  "dai": 18765,
  "substances": 13978,
  "slender": 10944,
  "clench": 26753,
  "minister": 2704,
  "##on": 2239,
  "tao": 20216,
  "laid": 4201,
  "##rone": 20793,
  "rescue": 5343,
  "direction": 3257,
  "##\u2502": 30143,
  "discipline": 9009,
  "apex": 13450,
  "oblivion": 24034,
  "cornerstone": 23354,
  "websites": 11744,
  "##rata": 14660,
  "##\u1175": 30019,
  "elf": 17163,
  "vein": 12818,
  "##mx": 22984,
  "investments": 10518,
  "##roud": 21332,
  "##nium": 14907,
  "asean": 27974,
  "responding": 14120,
  "harta": 26283,
  "##yo": 7677,
  "counterattack": 27835,
  "##\u30c3": 30237,
  "##jar": 16084,
  "resting": 8345,
  "salute": 17664,
  "casper": 24602,
  "sas": 21871,
  "dropped": 3333,
  "##rina": 11796,
  "##act": 18908,
  "scared": 6015,
  "greco": 18180,
  "escalated": 26814,
  "260": 13539,
  "##ts": 3215,
  "##it": 4183,
  "##isches": 27239,
  "taxa": 23726,
  "1877": 7557,
  "kruger": 27823,
  "shrug": 13409,
  "fencing": 15962,
  "##ror": 29165,
  "silas": 18553,
  "figurative": 29407,
  "democratic": 3537,
  "[unused18]": 19,
  "las": 5869,
  "1922": 4798,
  "alternating": 15122,
  "candidates": 5347,
  "deux": 24756,
  "zhang": 9327,
  "[unused916]": 921,
  "insist": 18292,
  "defending": 6984,
  "toro": 23790,
  "##uate": 20598,
  "curran": 19649,
  "1724": 26423,
  "##ands": 29560,
  "1899": 6166,
  "##ii": 6137,
  "\u1173": 1481,
  "integration": 8346,
  "therapist": 19294,
  "mentor": 10779,
  "##creen": 24410,
  "sorry": 3374,
  "\u10d2": 1440,
  "dion": 19542,
  "\u548c": 1796,
  "correctly": 11178,
  "ie": 29464,
  "##ols": 27896,
  "weapons": 4255,
  "ceremonial": 12961,
  "##wives": 23744,
  "##tight": 26143,
  "fragments": 10341,
  "joke": 8257,
  "[unused443]": 448,
  "##gle": 9354,
  "penetrate": 19136,
  "this": 2023,
  "collaborate": 20880,
  "reversal": 23163,
  "migration": 9230,
  "##nt": 3372,
  "##orn": 9691,
  "bounced": 13605,
  "##ken": 7520,
  "ripple": 24644,
  "##\u8c37": 30477,
  "indigenous": 6284,
  "nairobi": 21124,
  "julia": 6423,
  "thierry": 26413,
  "kris": 19031,
  "visited": 4716,
  "\u30eb": 1733,
  "advisor": 8619,
  "broadcast": 3743,
  "differential": 11658,
  "psychologists": 25428,
  "leading": 2877,
  "unavailable": 20165,
  "mumbai": 8955,
  "telecommunication": 25958,
  "bands": 4996,
  "canned": 27141,
  "184": 19681,
  "bruises": 18438,
  "princess": 4615,
  "cleavage": 28691,
  "##mobile": 17751,
  "##sun": 19729,
  "maud": 21696,
  "assess": 14358,
  "patron": 9161,
  "seventeenth": 15425,
  "falcon": 11684,
  "delaying": 29391,
  "fred": 5965,
  "marked": 4417,
  "swamp": 11963,
  "potsdam": 26554,
  "##rut": 22134,
  "trenches": 19874,
  "\u0642": 1292,
  "triangle": 9546,
  "\u98a8": 1977,
  "stakes": 7533,
  "markham": 26197,
  "##garh": 13484,
  "fishing": 5645,
  "seeker": 29444,
  "##\u0bb2": 29928,
  "intersecting": 27294,
  "reborn": 24910,
  "bangladeshi": 24267,
  "newt": 25597,
  "\u03b4": 1158,
  "temper": 12178,
  "##\u624b": 30384,
  "sung": 7042,
  "genetics": 14471,
  "esther": 14631,
  "renovation": 10525,
  "persuaded": 11766,
  "beg": 11693,
  "methane": 24481,
  "integrating": 22380,
  "##cia": 7405,
  "jenna": 13504,
  "interpreter": 19555,
  "[unused824]": 829,
  "issue": 3277,
  "##bing": 10472,
  "##nding": 15683,
  "greens": 15505,
  "treasure": 8813,
  "nas": 17235,
  "1759": 21667,
  "seismic": 22630,
  "fishery": 22880,
  "dentist": 24385,
  "snaps": 20057,
  "restrained": 19868,
  "isabelle": 13942,
  "1884": 6988,
  "hodges": 19772,
  "380": 17014,
  "##kin": 4939,
  "assume": 7868,
  "liam": 8230,
  "furnace": 17533,
  "chunks": 24839,
  "kicking": 10209,
  "austin": 5899,
  "80": 3770,
  "tariffs": 26269,
  "##ride": 15637,
  "sent": 2741,
  "wave": 4400,
  "investors": 9387,
  "##pressive": 27484,
  "definitions": 15182,
  "[unused825]": 830,
  "bergman": 24544,
  "julio": 15090,
  "horton": 18469,
  "road": 2346,
  "worlds": 8484,
  "melville": 20154,
  "mats": 22281,
  "##runa": 26605,
  "contracted": 11016,
  "##\u0987": 29885,
  "dismissing": 28913,
  "flames": 7311,
  "\u03ba": 1164,
  "noir": 15587,
  "hormone": 18714,
  "myra": 23020,
  "awarding": 21467,
  "##ivity": 7730,
  "braking": 24427,
  "residue": 21755,
  "[unused142]": 147,
  "wholly": 12590,
  "hindi": 9269,
  "olympic": 4386,
  "warwickshire": 18430,
  "flutes": 28453,
  "stoke": 13299,
  "##bruck": 28985,
  "riches": 26768,
  "ago": 3283,
  "ability": 3754,
  "mortal": 9801,
  "mathias": 20494,
  "precisely": 10785,
  "whichever": 29221,
  "naked": 6248,
  "picks": 11214,
  "walsall": 29054,
  "##athlon": 17563,
  "commentary": 8570,
  "waldo": 28806,
  "isil": 19600,
  "yanking": 25716,
  "##\u7fa9": 30462,
  "balloons": 22163,
  "residency": 14079,
  "concessions": 20638,
  "##cker": 9102,
  "until": 2127,
  "rich": 4138,
  "budapest": 10926,
  "neo": 9253,
  "sighted": 19985,
[...]
